FFFFE441
0000048F
00000A62
FFFFEC99
0000227B
00001A67
FFFFF07D
FFFFDE0D
FFFFDB8F
FFFFF44C
0000025A
000029D2
00002B94
00001F05
FFFFFD60
FFFFEFC8
FFFFD5FC
00001D20
00002BBC
00000328
FFFFE70E
00002444
0000221F
FFFFDFC4
FFFFD9FF
FFFFDEA0
FFFFE1AA
00001F67
00003492
FFFFF593
FFFFFAEA
FFFFFE40
00000E53
FFFFF9B7
FFFFE785
000012F6
000003AA
000011BD
0000183A
00002955
00000DB1
00000E2E
0000106E
00001388
FFFFF62E
FFFFF755
00000B51
0000097E
00001BEE
00001D6D
00002BC6
FFFFD4E7
FFFFE51B
000007EE
FFFFF2FE
FFFFDFBE
00001F23
FFFFDC40
000005C0
000027B2
FFFFF616
FFFFDB79
FFFFED72
00000EC8
FFFFE0F1
FFFFD258
FFFFD432
FFFFEC7B
FFFFEBF4
FFFFD722
FFFFDC71
FFFFEB2E
FFFFD767
00001A5A
00000000
000008C8
FFFFF340
00001C1D
FFFFDC42
0000142F
FFFFE3D3
000018B3
00000445
FFFFED35
00001C8C
FFFFDFC2
FFFFE5BC
000025E2
FFFFDFD1
FFFFF8D9
FFFFED5B
FFFFF9D1
00002AC7
FFFFEDE7
00001890
FFFFE73E
000025B9
00000EAE
FFFFEC73
000023DB
FFFFFF2B
FFFFE77A
FFFFE65E
00000133
FFFFEF85
FFFFFB3B
00002837
FFFFFA88
FFFFD3EA
000007A9
0000017E
FFFFFFFA
000001ED
FFFFF7FC
00000823
000006E4
FFFFF8BA
FFFFFD63
00000441
000005D1
FFFFF784
00000549
FFFFF9F7
000006CB
FFFFF4EE
000007FE
FFFFFBBA
0000054C
FFFFFF48
00000144
FFFFFA8B
FFFFF645
000004D7
000000DA
FFFFF8D7
00000935
FFFFFE9B
000000C9
FFFFFDD0
00000037
FFFFFC1C
00000328
FFFFFE32
FFFFFAB8
00000545
00000119
000008F2
000004D8
0000062A
000008B0
FFFFFE26
0000080D
FFFFF73E
000007B4
00000722
FFFFFE5C
FFFFFFA6
0000057D
0000006D
000004D7
000000B4
0000032A
00000009
000007BD
FFFFF9F7
FFFFFFF9
FFFFF967
000003E3
0000025A
FFFFFADC
00000B91
00000A86
FFFFFE27
00000354
FFFFFEFF
FFFFFCA9
FFFFFA99
FFFFF8DD
000006C6
000005EF
FFFFF708
0000013F
FFFFF609
FFFFF52B
000007E9
00000429
00000C49
000004D5
000008AB
00000602
00000824
00000A86
FFFFFFF6
0000043E
FFFFFE9B
00000BC9
FFFFF8D3
FFFFFF2E
0000030C
FFFFF407
00000A39
00000B51
FFFFF2DC
00000755
0000055C
00000C58
000006A8
FFFFF26B
FFFFF521
00000AFB
FFFFF76D
00000B4D
FFFFF777
000009C4
FFFFFFBA
00000068
FFFFFB21
FFFFF82F
000007FF
0000054F
FFFFF446
00000955
0000053B
000001BF
FFFFFC49
FFFFFD41
FFFFF968
0000022E
FFFFF7F1
FFFFF7B2
FFFFFD68
000004E7
00000998
000004EA
00000693
00000506
FFFFF3F6
00000457
0000071C
FFFFFEB2
00001057
0000105F
0000002D
0000040B
00000DCF
FFFFFE31
00000903
00000FFE
00000095
00000211
FFFFF18C
FFFFF5E3
FFFFFF91
FFFFF532
000002A0
FFFFFE16
0000027C
00000BA5
00000D55
00000053
00000141
FFFFFC78
FFFFF88F
FFFFF531
FFFFFF0C
00000585
FFFFF1FA
FFFFF6AB
FFFFF8DC
00000C66
0000076C
00000166
FFFFFA98
00001021
FFFFF923
00000BEA
00000A37
00000FA4
FFFFFC4B
FFFFFBFA
FFFFFEDE
00000B08
FFFFF77A
00000463
0000007B
FFFFFEFE
00000042
000001A8
000001FE
000000F0
FFFFF7EA
000001A1
FFFFFC3B
00000217
FFFFF5C6
FFFFFE8E
FFFFF494
FFFFF9A2
FFFFFF3F
FFFFFC21
0000051D
00000156
FFFFEFD7
FFFFF74F
0000056C
00000801
0000044B
