00002533
0000249C
000003CA
000017E5
000022A7
FFFFEC9A
FFFFCDEB
0000163E
FFFFDF1D
00000F01
FFFFE1E5
FFFFCF73
00000C9C
00001D09
FFFFE70F
00000ADD
FFFFE90D
00000178
00002807
0000070F
0000009F
00001658
FFFFD12D
FFFFF389
00001555
0000280B
FFFFF674
FFFFEEE4
00002964
FFFFFFD8
0000333F
000009BA
00000CDB
00000C32
00000B6B
00000D14
00000C75
00001191
00001499
000024BD
FFFFD88D
FFFFE03B
FFFFF3E7
00002512
00000877
FFFFCB13
00000D6A
00001D03
0000124A
FFFFDD7E
000017FB
FFFFF0F5
0000110E
FFFFEDBC
FFFFF16A
00001B15
000005B4
FFFFE83E
0000060A
0000043C
000014D8
00001E0D
FFFFD501
000025D8
FFFFEC57
FFFFDB5C
FFFFEAD4
00002538
FFFFC47B
00000DC7
FFFFE406
FFFFFAB7
0000069E
00001E4E
00000ED6
FFFFEE97
FFFFFD4D
00002862
FFFFD351
FFFFDCB2
FFFFF43B
0000264B
00000065
00001436
FFFFDDB7
00002569
FFFFF4FD
FFFFE161
00000B24
00001E1A
FFFFDB91
FFFFDC93
0000017D
FFFFDDC1
FFFFF547
FFFFD65E
00000C07
00000A1E
FFFFE848
00001115
FFFFCA51
00003139
FFFFEABF
00001E36
FFFFDD62
FFFFF545
0000062E
000003F5
000022AB
FFFFF5B8
000005E0
FFFFF920
FFFFEE0E
0000284B
000016C5
00000ECA
FFFFF8CD
000015D9
00002736
000017A4
FFFFD81C
FFFFF166
000005B6
00001747
00001970
00001150
0000270D
00000A1B
FFFFFC13
FFFFE876
0000168E
000029CC
FFFFF021
000017FB
00000228
FFFFDC86
FFFFEE89
FFFFFE08
00001014
00002F17
FFFFF4DF
FFFFCE41
00000E00
FFFFD8DB
00001935
FFFFD8E2
FFFFE31A
FFFFDA04
FFFFF08A
00001E12
00001998
0000094D
00001087
00000634
FFFFD791
00000D9E
000012BA
FFFFECC4
FFFFF74C
FFFFD27F
000014A6
0000139D
000017CE
00002E82
FFFFDF75
000024F8
00001DBF
00001E5F
0000227C
FFFFD849
FFFFE19D
FFFFEF8A
FFFFDC21
FFFFE5C1
FFFFD77C
FFFFE536
FFFFE270
000016B8
FFFFD4C7
000022CD
FFFFF6F3
00001FBD
FFFFCF75
FFFFE6FB
00000031
FFFFD788
FFFFE3A8
FFFFE25A
00001136
FFFFD0AB
00001C26
FFFFD795
FFFFF296
0000164B
FFFFEAB7
00000EE0
00001F90
00001AFA
FFFFF03B
000017A6
00002475
FFFFFDEF
000030A2
FFFFDB89
0000199A
000002A7
FFFFE8D3
00003258
FFFFF507
0000014B
FFFFF44E
00002917
00001BBE
00000F05
00000566
000021C7
00001071
00002F4F
00000518
000043AE
FFFFF13C
FFFFF082
00001B01
FFFFD093
00003061
FFFFCFCA
FFFFCDCB
FFFFCC35
FFFFDD6A
FFFFE204
00002348
FFFFE6DE
00002012
FFFFD911
00001EC2
00002CDC
FFFFEA0F
000024E4
00002BAF
000014A6
FFFFF729
00003366
FFFFEEA5
FFFFD21A
00002925
000014E6
FFFFFECA
000026BE
00000B8B
FFFFF819
00002737
FFFFCE07
FFFFCAEB
00000F6C
00000376
00001285
00002D2E
0000208F
FFFFFEEF
00001518
FFFFE2C5
FFFFE064
00000A65
FFFFE444
FFFFD2C3
00000142
00002A45
00001328
000026A4
FFFFDEA5
FFFFFD73
00002FF3
000020DB
000023CA
00001932
FFFFFA20
FFFFD895
0000171A
00001E3F
FFFFE719
00002470
00001241
000026E5
00002896
000005F8
000022D0
FFFFFA71
00001CA2
00000A8C
FFFFE765
00000EF6
FFFFFE75
000014F4
FFFFFA99
00001D4B
00001469
00000807
00000B60
0000262F
FFFFDDFD
00002B41
0000240F
FFFFE8B4
FFFFDEEA
FFFFDE26
FFFFFC66
FFFFF019
FFFFFBEA
FFFFCAB1
FFFFD7FC
000006D0
00000361
00000845
0000036E
FFFFCBE1
FFFFFCB5
000001DC
FFFFE08F
FFFFE20F
000019B5
FFFFE22D
FFFFF86E
000021C3
0000031B
FFFFF3ED
00000917
00000FD3
FFFFE9F0
000028C8
00000F29
FFFFF05D
FFFFFFF7
FFFFDDB1
00001029
FFFFE2FF
FFFFEA4B
FFFFEAEB
FFFFD98E
FFFFD543
FFFFEC4D
FFFFFD65
00000D0A
FFFFE3FC
FFFFF795
00001026
FFFFF311
FFFFEB19
FFFFFF0F
FFFFDC63
00000309
FFFFE95D
00000EC5
FFFFE8EE
00001B52
000022B4
00004646
00000C9C
000008DA
FFFFF4CF
000011AA
FFFFFE7D
FFFFD835
FFFFDB66
00001B2C
00000A5F
FFFFCCF2
FFFFD449
000020B5
FFFFC8EE
00001DC9
0000224A
00002C19
FFFFEAA4
00001B15
00001DC4
FFFFFFA7
00000C0B
00000B37
00002677
000013E8
000012B9
00001777
00000983
FFFFE306
00002268
0000087A
FFFFE84D
00000EEC
FFFFF9B7
00001634
00001D8D
00000A82
FFFFD0BE
00002687
0000366B
FFFFEB94
FFFFE19D
FFFFDF16
FFFFD287
FFFFFC87
FFFFD9FB
FFFFD5DC
FFFFF774
000008D2
000031CF
FFFFF030
0000100D
000022F5
FFFFF0AC
00000709
000020D9
000003ED
FFFFF683
FFFFDA51
00001797
FFFFEE15
FFFFE493
FFFFE003
FFFFE099
FFFFCEEE
FFFFF53C
FFFFDF93
000004A3
00003628
00002C94
000028B2
00000C7C
FFFFD4AB
FFFFF211
000005EB
FFFFF2AD
FFFFE34B
FFFFF25E
FFFFF2F0
FFFFEA60
FFFFC936
000027A4
FFFFF593
000003FC
FFFFEA85
00002328
0000061B
00000337
FFFFED53
FFFFDD6C
00001606
0000228C
000014F3
FFFFE475
FFFFDFF4
FFFFE23F
FFFFF8DD
FFFFEB9D
00000BF3
00001F5F
FFFFE156
00001774
FFFFDF36
FFFFF34E
FFFFDF81
000010D0
FFFFE348
00002568
FFFFCF99
FFFFE868
0000283C
00001BA8
0000015C
00001052
00001FF7
FFFFD442
0000249F
FFFFDAD7
000004EE
00001AEA
FFFFFCE7
FFFFE7D2
00000B19
00001F1A
FFFFEDEB
0000285D
FFFFDAEE
FFFFE15E
FFFFD306
00001B3A
FFFFFA7D
00000B42
00001727
00002B12
FFFFF2EF
FFFFBD31
00001C4E
FFFFF9A5
FFFFEDDF
000019D4
00001025
00000528
0000236B
00001A1B
00000F32
FFFFEC96
00001091
FFFFEF70
0000177A
FFFFDB24
FFFFE68E
000026D9
FFFFFF64
00003363
FFFFEADD
00001610
00001A11
00000BA5
FFFFF500
FFFFD069
00000668
FFFFF970
FFFFEDCB
FFFFEA7F
00000A3C
FFFFF599
0000031B
FFFFD643
FFFFEC21
00001C87
0000062B
FFFFC463
000009BF
FFFFC947
FFFFF31D
00000FFE
FFFFE895
FFFFD97C
0000029A
FFFFE0AA
FFFFEC47
00000E56
00000B55
0000100E
00000031
FFFFE6DA
000005FA
00000DE9
FFFFD0A5
00002C66
00001E50
FFFFDF74
00002102
FFFFE1E8
FFFFEE7C
00001505
FFFFE289
FFFFD8FD
FFFFD89E
00000FF8
FFFFE456
00001B89
FFFFDCE0
000014E2
00000843
FFFFF07C
00001997
FFFFF52F
0000036A
FFFFFBC6
00001CD1
FFFFFC60
FFFFF32F
00003958
FFFFDBA8
00001A59
FFFFE5BD
FFFFE5D0
0000038B
FFFFF2F3
FFFFE2AA
00001D74
000020D9
0000187A
FFFFDA6A
FFFFD50F
FFFFF686
00000EC8
FFFFF1CE
FFFFF04E
FFFFE3AE
FFFFF36F
00001F10
FFFFEEA4
00002BD7
00000389
FFFFFC07
FFFFE69F
FFFFF9B9
FFFFFF5F
00000847
FFFFFBF6
FFFFDAAE
FFFFF0F4
000012D2
00002014
FFFFE023
FFFFFCF8
FFFFFDDA
0000205C
FFFFD6BE
FFFFE4FB
00000849
FFFFED8C
0000031C
0000132E
FFFFE02C
00000DBF
00001120
000008EB
FFFFEA10
FFFFFE2B
0000151C
FFFFF270
00001863
FFFFE2D7
00000275
FFFFF5EB
000005A0
00001F1F
FFFFB13E
FFFFFE88
00001DDF
0000144E
FFFFEEA7
000022A6
000021AC
FFFFE397
00002F7F
FFFFB9EB
FFFFF13F
FFFFEED7
000011C8
00000897
FFFFF2E6
00002BEC
FFFFEC36
FFFFFB47
FFFFFC11
000023E6
00000884
FFFFD8C5
FFFFF92C
00000317
0000366A
00002C1B
FFFFD375
FFFFEEB2
FFFFD124
00001FCE
000000E9
FFFFF9B8
00001D92
FFFFCE1C
FFFFED98
FFFFF372
FFFFFDBE
00002340
00001E29
000005B6
0000144B
000015E2
FFFFF206
000010AD
00001B72
000026E0
FFFFEEB1
00002AF3
FFFFEA0A
0000209B
000026CD
FFFFE451
00002101
FFFFCEC2
FFFFD547
FFFFE0BF
FFFFEE69
FFFFFFA3
000024FD
FFFFE410
00000638
FFFFD007
0000191A
FFFFC0EE
FFFFE134
000013FD
FFFFCF8E
FFFFF3D9
FFFFF289
FFFFF7ED
FFFFDE37
00003751
0000010E
00002C02
00001C2D
FFFFDA9B
00000CB3
00000F66
00003482
FFFFF23B
FFFFD3EF
FFFFC056
FFFFF708
000010B5
FFFFF197
000005F5
FFFFF541
FFFFE882
FFFFD11D
00001EF4
FFFFD458
0000030A
FFFFFB08
00001639
FFFFE844
FFFFF13F
FFFFF8D4
FFFFDB8E
00002208
0000176C
FFFFEB19
000005C3
FFFFF7B6
FFFFF79D
FFFFD5AF
FFFFE348
FFFFEC9B
0000230D
FFFFE7A6
00001118
0000256B
FFFFED87
00001E9C
00001D0C
0000148F
000008DE
FFFFE965
FFFFF874
FFFFC783
000006D0
00000569
FFFFEA04
000024C7
FFFFE735
FFFFE6BE
00003860
FFFFEEE7
0000172A
FFFFEB38
00001570
000003AB
FFFFE6CB
FFFFFE11
00001136
FFFFDFF3
0000140C
0000242E
FFFFD09F
0000093E
00000C28
FFFFDE81
FFFFD441
FFFFDCCA
00002125
FFFFE77A
FFFFCDAC
FFFFF34F
FFFFE383
0000041F
FFFFF01A
0000168F
0000243B
FFFFE8EC
00001016
000011F2
FFFFF3D5
FFFFFA02
FFFFD7DE
00001B32
00000F26
00002480
FFFFF253
000018D8
000034C3
FFFFFD0F
00000C7A
FFFFE4A9
000012DB
FFFFE05D
FFFFE495
FFFFF9CE
FFFFC598
00001BFF
FFFFF210
FFFFDF50
FFFFEECE
00000FC3
000000CE
FFFFDD29
00001B5B
FFFFD9CC
00003280
00000014
FFFFF9A6
000035EA
0000252C
00002A02
00000708
FFFFE6A4
000025BD
00002D19
FFFFE5E4
FFFFE089
FFFFFE83
00001135
00001690
0000083F
FFFFD5CA
FFFFC599
000015A5
000002A3
FFFFC3A0
FFFFD969
FFFFE7B4
00001085
FFFFF93E
00001495
FFFFD997
FFFFF0EA
FFFFE142
00000C99
FFFFFEB7
FFFFD1B5
000027AA
0000176A
00001FE7
00000617
FFFFE260
00002620
FFFFFAD2
FFFFFA15
FFFFEA43
FFFFFD74
00001AB3
FFFFD55B
FFFFD4B7
FFFFCB00
000000D7
000019B6
FFFFD1E0
00000B8C
00000C08
0000266A
FFFFF9C8
FFFFD5DB
00003154
0000127A
FFFFE370
000019A6
FFFFED51
00000FBF
FFFFCD90
FFFFDF73
FFFFED6F
0000024D
0000152B
00001124
00001FDA
00003709
00000C8B
00003211
FFFFD7AF
FFFFD35E
000000C5
FFFFFB97
00001CF2
00000DD0
00002910
FFFFEAF1
00001961
00001DBA
FFFFE4F4
FFFFD8AE
00001B4D
FFFFE066
FFFFEDE0
FFFFD900
00002690
00001A64
0000255D
00001DD3
FFFFF474
000002B5
0000119F
FFFFC7A3
0000314A
FFFFD810
00000523
00000829
FFFFC5C0
00002EAC
00000990
00002486
FFFFE97F
000009A0
FFFFF862
00001C4D
000015D5
FFFFEF87
000022BC
000020CF
00000F7B
FFFFE291
FFFFE9F7
FFFFF94A
FFFFF066
FFFFC890
00000E12
000003D7
000015A8
00001646
00000617
FFFFD699
FFFFE5F3
000017BD
00000F22
FFFFF68E
FFFFEEEC
FFFFF35E
FFFFF259
00000679
FFFFF1D8
00002126
000028A2
0000028D
FFFFD6D5
FFFFE525
FFFFF546
FFFFFEB5
000037B8
0000006C
000033AE
00001589
00000F46
00000E6B
FFFFDD9C
FFFFDBE5
0000108E
0000025D
000002A3
0000244F
00002330
00002D6C
FFFFE298
000006D1
00000E46
FFFFFB83
000012FA
00002B9A
FFFFD2A0
000014B2
FFFFCEC0
00001905
FFFFEF90
FFFFF68D
FFFFF6BC
FFFFE002
000019E2
FFFFEE9B
00001BAD
000010AE
FFFFFAB6
FFFFE20A
00002306
00001460
FFFFEEC6
FFFFE313
FFFFF98A
FFFFEB6F
FFFFFA3E
FFFFDB87
FFFFF4D9
FFFFFE45
0000083A
000015F8
FFFFFECD
FFFFF21D
00001CB2
FFFFEEF5
FFFFB87C
00000CE2
FFFFE080
FFFFF9FD
00000DD8
FFFFD4A1
0000276A
FFFFFB1F
FFFFE8E3
FFFFCC42
000007FA
00001EEE
FFFFD253
00000B1B
000010FF
00000EC9
0000082B
FFFFE98D
FFFFF6BC
00000890
FFFFF2ED
00000208
00002F15
FFFFDCC9
00001D01
FFFFEF61
FFFFD560
FFFFB318
FFFFFFF7
FFFFFC05
00001D07
00000CAF
00001BC1
0000314C
00001AA4
0000259E
FFFFD3BB
FFFFEC26
FFFFDC58
FFFFECE4
00001B93
000006DA
FFFFECAC
00001847
FFFFEB18
000017BD
FFFFD144
FFFFEC8E
00002153
0000063F
FFFFCFF3
FFFFD9B7
FFFFE7F4
00002813
FFFFD7EF
FFFFDDEC
FFFFFFFC
FFFFE4E8
00002121
FFFFED3F
00000031
FFFFE635
FFFFC950
FFFFF758
00000E0D
00000446
FFFFD74C
00000D79
FFFFCC32
00000F06
FFFFFCC3
FFFFF071
0000214D
FFFFDE88
FFFFFF17
FFFFE3AE
00001043
00001F12
FFFFD50F
00001679
FFFFFF53
FFFFF24F
FFFFD327
FFFFFDC3
FFFFE525
FFFFEF82
FFFFD6F9
000010A5
FFFFDCDA
0000310F
000014DA
00000720
FFFFFCF5
00002433
000019F5
FFFFF5C1
000004BD
FFFFDF95
00000A23
FFFFCA94
0000377C
00003EAC
FFFFF801
FFFFD7B7
FFFFFFD1
00001FB9
FFFFE229
FFFFD914
FFFFC4B6
00000EE0
000010A8
FFFFCCB7
000007DD
00002190
000021A4
FFFFF7A0
FFFFDC1B
00000785
FFFFE76A
00001EDC
00003349
00001642
0000168E
00001930
FFFFFAB6
000010F7
FFFFC6E2
00000AE7
FFFFDDBE
00001350
0000016F
FFFFD9E1
FFFFF611
FFFFDD83
FFFFFC3E
FFFFD8E4
FFFFCBE2
00002E80
FFFFD096
000001AC
FFFFEDEF
000001DD
000013F9
FFFFD961
00000357
00000DF0
FFFFEF8A
FFFFFE5A
FFFFD7E6
000024F3
000020F2
000002ED
00000D79
000013FC
FFFFD483
00000063
FFFFE8B1
000006C1
00001C42
FFFFFD83
000022E7
FFFFE5FE
FFFFEC3C
FFFFC9A6
00001584
FFFFEE74
00001FF8
00000A75
FFFFF5AD
FFFFF8C8
0000157D
000029E4
FFFFFBEF
FFFFE6D7
00001CB0
FFFFE8D7
00000B9E
000021C8
FFFFF0FB
000007B2
FFFFE21B
FFFFF952
FFFFE7BF
FFFFDF92
00001830
FFFFFC80
00001B5B
00002F47
00001DDE
FFFFF45E
FFFFC7CA
FFFFFDC5
FFFFDD0A
FFFFE153
00000134
0000089E
FFFFFF81
FFFFFE0C
FFFFE000
000010C0
00000E22
FFFFCE8A
00000248
FFFFF427
00000AF0
FFFFFE22
00001D6B
FFFFFDF7
FFFFDCB3
00001BC0
000023FF
FFFFFDEC
00000EAB
00001221
00000A54
00000BFE
FFFFD337
0000107E
00000B19
FFFFC2C4
00002B51
FFFFF7C3
00000357
00000517
00002961
00001804
FFFFED5B
0000091E
FFFFE8D0
FFFFF44C
FFFFF291
FFFFCC0E
00002315
00000A02
FFFFCA88
FFFFFEB5
00002829
FFFFEEF8
FFFFE690
00000380
00000A63
FFFFCCD4
FFFFDAF9
FFFFDFDC
FFFFE5E2
000021CF
FFFFD19F
FFFFF13E
00002536
00000CF8
000005B4
FFFFFB11
FFFFE50B
000001C6
000023E6
00000187
00002A6A
000017E2
FFFFF91A
FFFFF47E
FFFFEFD3
FFFFD60C
FFFFFE5E
FFFFE74F
00000B8B
00002040
FFFFF3F2
0000159F
00001B62
00002C50
FFFFF4E6
FFFFD1B0
00002633
FFFFD549
00002F6C
FFFFE7F8
FFFFEBB9
FFFFF5FA
FFFFE90C
FFFFD4BC
FFFFCD54
000014E8
FFFFD6C0
000030BA
FFFFE8AC
000001DE
FFFFE10B
0000201F
00000ED8
FFFFDB55
FFFFE176
00003348
FFFFE497
0000070B
FFFFFBB5
FFFFF547
FFFFD42A
0000082D
00001914
00001DEC
FFFFF9B0
FFFFD857
000020D0
FFFFCFCC
00000DC7
FFFFD0DE
FFFFD2AA
FFFFF459
000016A1
000012B7
000019C9
FFFFEE75
000004F5
00000C67
000011D9
FFFFDBC3
FFFFF8C3
00001B81
00002756
FFFFD72D
00002369
0000136C
0000230E
FFFFF7FF
0000092F
FFFFDA35
FFFFF65A
000035BE
00000D42
00001979
00001929
00000792
00000ED0
00001C63
000022C4
00000427
FFFFF7E2
FFFFF26C
FFFFE6DE
FFFFE9C7
000004BB
00002D2B
000030E1
FFFFECE3
0000333A
000027A9
FFFFF038
FFFFDAD3
000020B3
FFFFEE25
0000307F
0000211F
00001CD0
00001647
FFFFDC92
FFFFD16C
00002E07
FFFFDF9F
00002308
000016B3
FFFFD032
FFFFFC66
00001EF3
FFFFE9CA
000014D4
00000D51
FFFFF06A
FFFFE078
FFFFEE7D
FFFFE34B
000017E7
FFFFEFBC
000031F8
000011B5
FFFFD8EC
FFFFFDBD
FFFFD1E3
FFFFE39D
000009BC
00000F12
FFFFD529
000021C7
FFFFD0A1
00002E52
FFFFE4AC
00001C38
FFFFE4A7
FFFFEB2B
0000106C
FFFFF799
FFFFDE2A
000007FA
00002217
00000BA0
FFFFCCE5
00001A8A
00000F45
FFFFF4EE
FFFFD242
FFFFEEE4
FFFFD480
FFFFF802
FFFFEB28
FFFFD9D8
FFFFF868
FFFFD33C
000004D8
FFFFC9BD
000022F0
FFFFDA9B
FFFFE51D
0000103A
000011A3
0000020A
00002DFC
00000180
FFFFFB60
00000FE2
0000051D
FFFFE879
FFFFCF76
FFFFDA0D
FFFFFA03
FFFFF79C
FFFFFF3B
FFFFE730
FFFFF49C
FFFFEEFF
FFFFF03D
FFFFD4BA
00000D5E
FFFFEF02
00001538
FFFFEC81
000024C5
00000E6A
00002795
FFFFCC1C
000021D6
FFFFD80F
FFFFE47E
FFFFE950
FFFFFC2E
00002600
FFFFEF2F
FFFFFE08
FFFFE043
FFFFE7FA
FFFFFADA
0000087F
00002413
FFFFFB14
00002D27
000011E8
FFFFD225
000038F6
00002C5B
FFFFC8A9
FFFFE085
00000EE4
FFFFE78D
000021BF
FFFFF68A
FFFFDDDF
FFFFF03B
000029F3
00000078
FFFFD394
00000013
FFFFE3BD
00000BC6
FFFFFE08
00000B7D
FFFFE99D
00001CA4
00000BDC
00001F3B
FFFFFAE3
FFFFD7C9
FFFFE9AE
00000BBC
FFFFCBB8
FFFFEA51
FFFFF3AB
000028E7
00002945
FFFFD858
FFFFD9B8
FFFFFD74
FFFFCBCF
FFFFF08D
FFFFF669
FFFFD4CD
00001E9C
00001ADE
00002253
FFFFE6DF
000001F4
FFFFFA6A
FFFFF372
00000A48
000016ED
FFFFD2C9
00001C64
000025D7
0000037F
000001B4
FFFFEE67
FFFFCCB8
00002557
FFFFC155
FFFFC6C3
FFFFEE74
FFFFFFCC
FFFFC319
000012F4
FFFFF037
FFFFF471
00002680
00002AFE
00001157
FFFFE495
FFFFEC23
FFFFF8C6
FFFFD6E2
000016AB
00002D66
00000D96
000008EF
FFFFDD29
FFFFD235
FFFFE990
00000A5B
00001602
00000EB0
00003234
000035D5
FFFFE121
00003388
FFFFEFDD
0000015C
00000867
0000231E
000000A4
FFFFE336
00002B54
FFFFDA6E
000016E6
000026CD
00000A11
FFFFEA7D
000005A8
0000051C
00002336
0000177C
FFFFCAFB
00001513
FFFFF95E
0000204C
FFFFF608
FFFFCDEA
FFFFCE55
FFFFE62F
0000274E
FFFFD907
FFFFFD0F
00002AD2
00000DB5
FFFFCDA5
FFFFE187
FFFFF9BC
FFFFE6A8
000009DC
000018AA
FFFFF935
00001308
FFFFD251
FFFFE986
0000201E
FFFFDE2C
000020B4
00000562
FFFFDB66
0000112D
00000DB3
00001A9A
000010B0
FFFFFB37
FFFFFD04
FFFFEFEB
FFFFE3FC
FFFFC863
FFFFEF79
FFFFF035
0000199A
FFFFD17F
FFFFCA1B
FFFFEE31
0000224A
FFFFFBAE
FFFFD1DD
0000132D
00000546
FFFFE3BD
00000E22
000005E0
0000007E
FFFFFC3B
FFFFD7B4
FFFFD396
FFFFD4F4
FFFFF808
000028A9
000018B8
0000096A
00002E90
00001D09
FFFFD594
00002251
000018F6
00000207
00000F90
FFFFF4E4
000031F2
000025F4
00002A1D
00000FF4
00002FD0
00002ACC
00001EB8
FFFFE511
000028C1
00002353
00001AAA
0000337D
00002E57
000007E3
00000E0D
FFFFFBB6
000015F4
FFFFD326
FFFFD891
000005E0
FFFFD2DA
000016F3
0000057F
000010E1
FFFFD5C3
00000C4E
000031C8
FFFFEC1B
FFFFE65E
FFFFD4DA
0000104F
0000072B
FFFFFF67
0000150F
FFFFF7DE
000020BD
FFFFF46B
FFFFF549
FFFFE64D
000026C1
FFFFD997
FFFFE5DC
00000F93
FFFFE8B7
000012A2
FFFFF1DE
FFFFFA6D
00002EC9
FFFFEB85
FFFFCA83
FFFFDDA7
FFFFD521
FFFFF4FD
00000F4C
0000182D
FFFFFE11
00002E74
FFFFF5F8
FFFFE058
FFFFD4E7
00001845
FFFFF913
00001DEA
FFFFCE5E
FFFFED23
FFFFD138
FFFFDDFD
0000112A
FFFFD58C
FFFFFD52
FFFFD020
FFFFE9F5
FFFFC7A9
FFFFDA7A
FFFFF934
FFFFC8CD
FFFFF1E9
000024D0
00000366
FFFFE419
000024C8
FFFFEFAD
00002643
00001736
FFFFFDFF
00002FA9
000027FB
000026E6
FFFFE5FB
00002A63
00001693
000028BF
000001EE
000018FC
FFFFDCAB
FFFFF3A8
0000161B
00003075
FFFFF789
FFFFEEEE
000030B7
0000110D
00001CDD
00002520
00002B4B
FFFFD03D
FFFFF8F0
00000004
FFFFEFD2
FFFFD9AC
00002EB5
0000280B
FFFFD98A
FFFFE6AD
00000C25
FFFFF709
FFFFF004
FFFFFDFE
FFFFFAF9
0000041A
00001100
FFFFD802
0000050A
00000B97
000024F1
FFFFEC6A
00000F74
0000201C
00001251
00000303
00002BAA
00000AD3
FFFFD304
000028BE
FFFFE274
00002EA0
00001B90
FFFFFD6A
00002834
FFFFFF2D
00000947
FFFFE65C
000033CE
000023E8
FFFFFB66
FFFFF7F9
00001423
FFFFDC20
FFFFCD13
00000011
00000470
FFFFF87C
FFFFCD32
FFFFCE92
00001215
FFFFFDAD
FFFFE5F5
00001577
FFFFE414
00000437
FFFFE38C
00001ABD
FFFFCB96
00001C9D
FFFFE4A3
00001406
FFFFE579
000005F5
00002255
00001069
00000A5B
FFFFE0C3
FFFFD980
FFFFD54E
FFFFE39B
FFFFFFD6
00001D78
00002536
0000125B
FFFFF04B
FFFFCC89
FFFFF69A
FFFFE962
0000051A
00001D72
FFFFE5BD
FFFFD822
FFFFFB2D
00002607
FFFFFBC2
FFFFEA32
FFFFD806
00000BD4
000002D5
FFFFF765
FFFFDE77
FFFFDDAD
FFFFDBA1
FFFFD6E6
FFFFEA36
FFFFEAAB
00002E2F
FFFFD960
00001AE8
FFFFEE1E
00001764
FFFFD2C6
00000BC2
000023EE
00001120
00003228
0000208D
FFFFE7C8
FFFFE188
000002E4
00002104
00002B6D
FFFFE4AF
0000147C
FFFFCE5A
FFFFF557
FFFFD6BF
FFFFCF40
00002D46
FFFFD9AE
00001921
FFFFEFF4
0000105F
FFFFE52F
00001910
00001D1D
00001962
FFFFF98E
FFFFCEC0
FFFFEE65
FFFFF709
FFFFE3F0
FFFFE4B2
0000036D
FFFFEE78
FFFFE6E5
00001E91
00000234
FFFFFFD2
00000ED2
00000751
FFFFF2DD
FFFFEA4D
00001BFE
00001EB4
FFFFFC84
FFFFE345
00000586
00001E65
0000034F
000021B1
00001AD2
FFFFFAB5
FFFFEAF9
00001E64
0000163D
000026AE
FFFFF10A
FFFFD584
00000CC2
00003223
FFFFF17C
FFFFE8A7
00001EA5
0000145A
00003554
00002E20
000008C4
00002374
FFFFD6FE
FFFFE0B8
00002A81
00003582
000015BC
00001D32
00002061
00002B93
FFFFE4DE
0000024D
FFFFE1AB
FFFFF1D6
00001EF3
00000FEE
FFFFFB77
00000AE7
FFFFF002
000020C7
FFFFEA6A
00002990
FFFFDC9C
00002532
000020F2
00002A8D
000008F4
FFFFF084
FFFFFFB4
00001AD5
FFFFD8BA
FFFFEBDF
000029FE
FFFFF856
FFFFE592
FFFFF7FA
00000F91
00000D27
000020BC
00000312
FFFFF31E
00000F6B
00002C86
FFFFCEC5
FFFFD7EB
00002755
00000934
00001479
00001266
00001D43
FFFFEECA
00000AAA
FFFFD55F
FFFFD956
FFFFFC58
0000158A
00000206
FFFFDA8F
0000001B
00002422
00001575
00002B96
00000D83
FFFFE1C6
00000A23
0000151D
000011E5
FFFFDD56
FFFFF333
FFFFE2B9
00002518
00001230
FFFFF0E7
00000C72
00001C37
00000234
FFFFD76F
FFFFE699
FFFFDCA5
FFFFE7EC
FFFFFA83
FFFFF9FF
FFFFEEF8
FFFFF5F4
00000911
00002921
00000FC2
000009B7
00002924
00001861
00003117
FFFFD0B3
FFFFFA2B
FFFFDA35
0000043C
FFFFF774
FFFFCF36
FFFFEACD
00001441
00001780
FFFFCFF1
000018E5
FFFFED06
FFFFCF7D
000000A0
000005E0
FFFFE815
00001089
FFFFD1A0
FFFFF5CE
000035C0
FFFFD84B
0000064D
FFFFF830
000022EC
FFFFCF58
00002D19
000013AB
000029B7
FFFFEC6D
00002169
00002322
FFFFFC4E
FFFFF551
FFFFFE63
00001EF2
00002F14
FFFFCF56
FFFFE95C
FFFFCC8C
FFFFBB33
FFFFD4BA
FFFFE491
FFFFB4A6
FFFFE5B5
000001DC
FFFFEBDF
FFFFD27B
000000A8
FFFFD612
FFFFE336
FFFFF783
FFFFF6CA
FFFFF052
0000068C
FFFFE512
FFFFD62F
FFFFEB1E
FFFFDBBC
FFFFE9FF
FFFFEA21
FFFFD2B7
FFFFED4A
FFFFD225
FFFFF951
00002305
00001C31
FFFFE008
FFFFCE1C
00002226
0000057A
000003E8
000026E7
00001973
FFFFEEE0
FFFFD3D7
000009F2
FFFFF779
FFFFCBF3
000016FC
00001741
FFFFE87A
FFFFE5EB
FFFFFAE5
00000658
00000EEF
00000A0B
00000FDB
FFFFF77E
FFFFDEE9
FFFFF139
FFFFCC4A
FFFFE905
00000937
FFFFDC8A
00000708
00000D16
FFFFE9B9
FFFFFCCE
00001BA8
FFFFF029
00001DF1
00002581
FFFFD073
FFFFF620
FFFFF18C
FFFFE3D1
FFFFFBB2
0000075C
00000478
000002AE
000037DE
FFFFE54F
00002834
000031BB
00001CAD
FFFFE6CC
00002005
00001BEE
FFFFF551
FFFFF0DB
FFFFCE53
FFFFCFBA
000007BA
FFFFE4ED
FFFFFFCF
FFFFEE7E
FFFFE2FA
000014EB
FFFFD8D6
FFFFF307
000029B9
00000EE5
000009BD
00000E57
000006F1
FFFFF09F
00001C53
00000480
FFFFF9B1
00000B04
00001802
00000EA2
FFFFDAC5
000006DA
FFFFD99B
00002DB2
FFFFDD8A
000009E1
00002DB3
FFFFF5C4
0000360C
00002893
FFFFDA4F
FFFFF847
00000210
FFFFDC34
000029A7
00000400
FFFFD3AB
FFFFF944
00000B31
00001118
00000146
00002F12
FFFFD723
000007CD
00001147
00000B41
00001B1C
FFFFDC04
0000116C
FFFFD4D7
FFFFFAA3
0000314C
0000291F
00000FCC
00001672
000001D5
FFFFD247
0000287D
FFFFD2D9
000026C8
00002BDD
FFFFE14C
FFFFDA9C
FFFFDBA9
FFFFF87B
00002368
00002D29
000012B2
FFFFCE7D
00001A2A
0000109A
000013D2
00001393
FFFFF544
FFFFF8B7
FFFFF9E1
FFFFDC29
00002A86
00002E60
000001AA
0000256D
FFFFFBC5
FFFFF2F8
00001B13
00002BEE
00000F25
00001C3C
000028C3
FFFFFA5A
FFFFDDF7
FFFFD15A
FFFFE60D
FFFFD4A5
FFFFCF3D
FFFFD232
00003031
FFFFEFE9
FFFFDA3A
FFFFD99A
00002F15
0000048C
0000054F
00001103
00000C93
FFFFF012
0000372B
000009B8
00000440
00002AE7
00001170
00000551
00000EF0
FFFFD753
00000A80
00000B31
FFFFEE21
FFFFD0BA
00002921
00001934
FFFFD72C
000011CC
FFFFCCDF
FFFFDC88
000028B8
000025B8
000022CE
FFFFFC5D
00000AA5
00002066
0000045E
FFFFE7B4
FFFFDD39
000025CB
00000D82
00002C27
FFFFF792
00000826
00001016
000020CD
00001CD4
FFFFD238
FFFFDBB9
FFFFE1AB
FFFFF911
00000BA7
00001D0A
FFFFEE8A
000006BB
000010AF
FFFFE29B
FFFFD052
000009F4
00002B9B
0000134F
00000211
FFFFDC23
FFFFEDC8
00001E4D
000026C7
FFFFF5AE
FFFFF96B
FFFFE63C
FFFFE4E4
FFFFD658
FFFFE94F
000008E4
FFFFDE73
FFFFF5A2
FFFFF148
FFFFE7A0
FFFFF44B
FFFFD934
FFFFE672
FFFFF741
0000147F
0000110E
00002F49
0000027C
00002849
FFFFEF34
FFFFFA8E
00002089
0000277D
FFFFF3F7
000006B8
00002204
FFFFF9F7
FFFFE8D0
FFFFE692
000007BC
FFFFF20E
FFFFE36E
000031A8
FFFFEB26
00001D9C
00000F72
FFFFE50A
FFFFEF18
00001E7D
00001645
00001290
00000A22
FFFFEBC2
FFFFE9F3
FFFFFF3F
00000CC4
FFFFD3AC
FFFFE13C
FFFFF5E2
00000F3F
FFFFFD2E
0000225C
FFFFD1AE
00000931
00001861
FFFFE676
FFFFD691
FFFFD798
FFFFE5D6
0000070B
FFFFF1BA
FFFFE7CA
FFFFD4CB
FFFFE79E
FFFFFBCA
0000216F
00001243
000000AF
000029FA
FFFFD092
FFFFDFE4
00001FB5
00002668
00000FE8
FFFFFD6E
FFFFFE31
00000032
FFFFF6DE
FFFFF872
FFFFD737
FFFFC359
FFFFD32D
0000204B
FFFFFCFC
FFFFF002
FFFFF318
FFFFF1EC
000029F0
FFFFD534
00001ABA
FFFFF7BB
FFFFD9A3
00002FF3
000006E3
00001E6B
00000F8E
000017BC
00000684
FFFFD5AD
FFFFD446
FFFFE101
FFFFEE70
0000115F
FFFFF2D6
00002216
00001B85
000021CA
FFFFF168
00003518
FFFFDD0D
00002787
FFFFF4B4
FFFFFE63
FFFFE314
FFFFFAE4
FFFFF62F
00001F0E
FFFFE2E0
00000E15
0000234E
FFFFDB56
00000D30
00001445
FFFFDF4B
FFFFD60B
FFFFF174
000027C8
FFFFE764
00000791
00002416
FFFFCD0B
FFFFD335
000029FF
FFFFD9DE
00002585
0000212B
0000002C
FFFFCEC7
FFFFFCB7
FFFFDF0E
FFFFD210
FFFFD4B3
FFFFD474
000027B0
00002007
FFFFF7B0
FFFFEB26
00002C1D
00002E57
00002C21
FFFFED40
FFFFD68E
00001F5B
FFFFF7D8
000010EA
FFFFECF6
FFFFF907
FFFFEA90
000013AB
FFFFE862
FFFFE62E
000000F5
00002B6D
FFFFFCEA
00001F14
FFFFE1B0
00000412
FFFFEF44
FFFFD922
FFFFEC66
00000091
00002774
FFFFE774
FFFFF199
0000172F
FFFFD5E5
00001387
FFFFDD48
00001B27
00002455
FFFFF034
00000518
00000F90
FFFFDC7A
FFFFFDE6
FFFFDCA1
FFFFE57E
FFFFD553
FFFFE063
FFFFC3BC
FFFFC671
000023B9
FFFFDD5C
00000A8C
FFFFEE72
FFFFE3B9
FFFFE94E
00001811
00000C46
0000194F
FFFFFE6D
00003AE5
00001533
000001AF
00000553
FFFFFAFA
FFFFE833
00000F41
00002312
FFFFD9EC
000027D9
0000017B
00001B6B
FFFFD4E9
FFFFC5FC
FFFFD916
FFFFCE8C
000026B0
FFFFEB6C
0000064E
FFFFEA73
0000296C
0000157C
FFFFF938
00002627
FFFFF154
0000143F
FFFFE71F
FFFFD615
00000F37
000001E7
00000B42
00001FFF
FFFFEA4D
FFFFFCF3
00002938
FFFFD715
000000BC
00001BCA
FFFFFA61
000004C6
00001CC3
0000277E
0000047F
FFFFD8DB
FFFFFA0B
FFFFCA55
FFFFFA94
000000E9
FFFFDF12
FFFFD8EB
000003B2
FFFFFFC6
00002568
FFFFED1F
00000946
FFFFFC38
000021C7
FFFFD54F
00002FE8
FFFFCF93
00002D79
000028E9
FFFFDB7C
FFFFF6AA
00001F3F
0000220C
00000052
000017B9
FFFFE7FB
FFFFFFCD
00001ECD
00000580
0000357C
00000510
FFFFF2B4
000008BE
FFFFF43D
000001FE
FFFFE7CC
00001B83
FFFFFA81
FFFFCE7E
FFFFFFB2
00001565
FFFFF4DC
00001E10
00000194
00003125
000029D6
0000164B
000004E1
00001F9C
FFFFE88A
FFFFF1E5
000010A0
00001CDB
FFFFE0B8
00002E48
00002D68
FFFFD077
FFFFD823
00001223
00000003
FFFFE3F2
00002DE2
FFFFDA48
00001DDF
000003FF
FFFFD3D1
0000090D
00001F52
FFFFF6DC
FFFFDF16
FFFFF8C4
00000E1C
FFFFE7A9
FFFFF097
FFFFE063
FFFFEE3B
00002EC0
FFFFE109
FFFFD53F
00002CA3
FFFFC6A5
FFFFDCD9
FFFFFADA
00001397
FFFFEB5B
0000161C
FFFFDB99
FFFFE3B4
FFFFF161
FFFFD492
000017CA
FFFFCA6B
FFFFD8DE
FFFFC899
FFFFD37F
FFFFDFEC
000021AD
FFFFE57E
00001B15
000005D7
00001FCF
FFFFE2A1
000032F1
FFFFFA9B
00000B29
FFFFD182
FFFFC917
FFFFF493
00002718
FFFFCCCC
FFFFE992
FFFFE161
FFFFCA89
000001F4
00002ACE
FFFFD14A
FFFFDA7F
00001D70
000029C7
FFFFEBC4
00000FE9
FFFFE401
0000024E
00001F14
000025B2
FFFFFA5B
00000443
FFFFEAFA
FFFFF62D
FFFFFBAF
00001D56
00000E16
00002400
0000183E
FFFFFAA9
00003406
0000209E
00000C7C
0000377D
FFFFEF3C
00000EB1
000024F6
FFFFF270
FFFFEB33
FFFFF61B
0000161E
FFFFFB8C
FFFFFCF0
000004B8
FFFFC7AB
FFFFC98A
0000176E
00001936
FFFFE77E
000012D7
FFFFF2E8
FFFFCE57
00002614
FFFFE5C7
000005B1
00003458
00001FBA
FFFFEB30
FFFFF271
FFFFFBE9
000006F7
00002B36
00001BBF
000004DF
FFFFFF41
FFFFF2FC
FFFFD0ED
FFFFF6E6
00001445
00003026
FFFFD9CC
0000141E
FFFFEFD3
00001ADD
FFFFF55B
00002E36
000014DA
FFFFE1D6
000024E9
FFFFD7E7
00001024
FFFFE2E8
FFFFE126
00000110
00002AE6
FFFFEB96
000037CA
00000979
FFFFF666
FFFFD772
FFFFD913
00000994
00002B13
FFFFDC01
FFFFEFDE
00002008
FFFFEFE5
FFFFEE1C
FFFFFDAF
FFFFF534
00000D7A
00000BE7
FFFFDD53
00000AFD
FFFFCE90
FFFFEE43
FFFFE286
FFFFEF21
00001719
FFFFFF82
0000091B
FFFFED36
FFFFEF00
00002701
FFFFFFAF
00001FEE
FFFFF7F5
FFFFF1EE
FFFFFC5A
00002345
FFFFDC40
000032CD
00002048
00000BCD
00000C8E
00000145
0000269C
00000154
FFFFE82F
00001565
FFFFDA5C
00000046
000014F8
00001EE9
000020BA
FFFFE910
FFFFD5ED
FFFFD642
FFFFCD1D
00002E71
FFFFD0C5
FFFFCD2F
FFFFF479
FFFFF110
00000F74
FFFFEC29
FFFFE9FC
000016D8
00002F29
FFFFF95F
000005AB
00003154
0000090F
FFFFEF10
00000DFE
00000884
FFFFED8B
FFFFF80D
FFFFCFB0
FFFFEC00
FFFFF11E
FFFFE46D
00002512
0000139D
FFFFF60A
00000377
FFFFD3C2
FFFFD600
FFFFD183
FFFFF02C
FFFFDA4D
FFFFDD6D
FFFFD7D5
FFFFE537
FFFFE181
000007EE
FFFFEDC6
00001DCB
FFFFF4AC
000024AE
000023C6
0000182C
FFFFFC8C
00002C12
FFFFF157
00001347
FFFFFB13
FFFFE373
0000262A
00002342
00001524
00000CD3
FFFFD2C2
FFFFD118
00000DCC
00002CEA
FFFFFF4B
000017DE
00000CDA
0000112A
FFFFEEB0
FFFFF7EE
00002234
FFFFF968
00002606
000013D2
00002C60
FFFFE74D
000016AA
FFFFFB95
FFFFDC17
FFFFFE53
FFFFD2B6
FFFFE600
00000073
FFFFF51D
FFFFD67E
00001D14
00000386
FFFFE734
FFFFFAF6
00002E33
FFFFFFF0
00002233
00000D8D
00000787
00003207
FFFFED0F
00000FA9
00002BF1
00000DAF
FFFFD8B7
FFFFEE78
FFFFE1F6
FFFFE2C5
FFFFD952
00002C9F
00001260
FFFFE377
FFFFEA50
FFFFE697
000023AE
00001BC2
FFFFE147
00000FB5
FFFFFC03
000015D8
00002F28
000009C4
0000134D
FFFFCEB7
FFFFFFE7
FFFFF4E1
FFFFFE8D
FFFFF3F9
FFFFD6D0
00000E7D
00002AEB
0000034C
00002BDF
FFFFD3E8
FFFFDD16
FFFFD5F6
FFFFE2D1
00000AE6
FFFFDD72
FFFFEA2F
00001224
FFFFE239
00000C11
FFFFF28D
FFFFEAE1
FFFFF7FA
FFFFCE11
FFFFE296
FFFFF525
FFFFF4F3
FFFFCF8B
000026FF
000005EA
FFFFDC66
FFFFCF75
FFFFD250
FFFFFCFF
FFFFC5A3
00002D7D
00001618
FFFFD03B
FFFFF393
FFFFEFE0
FFFFE583
000003C1
00000F0F
00000A11
00002862
FFFFF457
0000092F
00001BCF
00002591
FFFFD82F
FFFFFCCF
000028B9
FFFFC97E
FFFFDC92
FFFFD031
FFFFF115
000019F2
00002AC5
FFFFD8DB
0000231B
00002621
FFFFEA0B
00000D62
FFFFD5BF
00001A32
FFFFDB5E
FFFFCD64
FFFFF56C
FFFFD443
0000228A
FFFFECA1
000018C3
FFFFFAD5
000013F3
0000347B
FFFFFCCD
000022CD
FFFFFC42
00002561
00001D70
0000187A
0000359D
00000819
FFFFE551
0000058C
0000184E
00000C7F
FFFFED90
FFFFF22F
000012C6
000026DD
FFFFEBDD
FFFFF3D1
FFFFF021
00001D80
0000243F
0000138D
FFFFD51F
FFFFDC6A
FFFFCFD8
00002D57
FFFFFD21
00002786
FFFFF281
00002F43
000018E2
FFFFDC4F
00002D7B
0000002A
FFFFE4D5
00000C23
FFFFFF1B
FFFFE7D9
000006C4
00000E67
FFFFDC1B
00000477
00002CAA
00002AB2
FFFFCC54
00000DC6
00002B93
0000152D
FFFFDBC1
0000162E
FFFFFC79
FFFFFE9F
00000AF2
FFFFDB77
FFFFD834
FFFFE307
0000126A
0000225D
00000397
0000386E
000001A1
FFFFF7AC
FFFFD0BC
FFFFD3E8
0000309E
FFFFE626
FFFFCCF1
00001327
FFFFE286
FFFFCD59
00002AB0
00000C6E
FFFFDDF3
FFFFD7BE
000009C5
00002D08
FFFFE7F6
00000E56
FFFFFAA6
FFFFEA3E
FFFFE8A4
FFFFF3D2
00002B6F
FFFFE65D
FFFFCF14
FFFFE03F
0000244C
FFFFE352
000004E2
FFFFF7E5
00000AA1
FFFFFBC5
000004A2
FFFFFD9C
FFFFFCB2
0000091E
FFFFF919
FFFFF5EA
00000648
00000A1C
00000687
0000098E
00000252
FFFFFB2C
0000036C
000002C4
FFFFFA86
FFFFF9CE
FFFFF90D
000006FD
000004CB
000001CF
FFFFF51E
0000004D
000008FC
0000051C
FFFFF79C
000009B1
0000036D
000007CF
000001C9
000000EC
00000317
FFFFFE98
00000D10
00000511
0000026B
000005B9
00000B6E
0000112E
00000D1B
0000009B
00000C18
FFFFF738
00000741
00000153
FFFFF6EA
000002E7
FFFFF5E5
00000537
0000019F
FFFFF854
000009F6
0000086B
00000A5E
00000C6E
FFFFF791
FFFFFF8B
000004C7
00000331
00000046
FFFFFB99
00000966
FFFFFE8B
FFFFF5B2
FFFFFC5F
000009C3
FFFFF521
FFFFFC9A
FFFFFE3A
FFFFFFC3
00000544
FFFFFD09
0000036B
FFFFFBCB
000001CC
000007E3
FFFFF796
000003C1
FFFFF8B5
00000AA0
000006F4
FFFFF9E9
0000037D
FFFFF962
00000098
00000080
FFFFFD40
FFFFFD1A
FFFFF684
00000089
FFFFFB8F
00000293
FFFFFBB6
00000077
000003CF
FFFFF99F
000000B1
FFFFF4BC
000004AD
FFFFF7E8
FFFFF950
00000128
00000863
0000092C
00000251
0000097A
0000004E
FFFFFC0F
00000AB7
00000BAF
0000118E
FFFFFC9F
00000226
000001B4
00000811
FFFFF929
00000455
000001DE
FFFFF3AF
FFFFFF4E
FFFFFB53
FFFFF872
FFFFF835
FFFFF83B
FFFFFA20
FFFFF49F
FFFFF2CC
FFFFF47A
000004C4
FFFFF870
FFFFFF9B
00000B23
FFFFFDC6
000001E5
000004B0
FFFFFADE
FFFFFA40
FFFFFCD7
000000E0
00000C4E
FFFFF8A8
FFFFFFE4
FFFFF7E4
000005C9
FFFFFA1C
FFFFFD5B
0000064F
FFFFFF20
00000386
0000044C
FFFFFDAD
00000841
FFFFFB37
00000973
0000027B
FFFFFF66
FFFFFFC5
00000A48
00000651
000003A6
FFFFF544
000003BF
FFFFFA25
FFFFFDAC
FFFFF37A
FFFFF992
FFFFFABF
FFFFFC2C
000009B7
FFFFF7D2
0000024F
00000377
FFFFF97F
FFFFFDC8
FFFFFEBF
FFFFF550
FFFFF447
00000C07
FFFFF8A5
FFFFFD7D
FFFFF9C2
000003A4
FFFFFB6D
FFFFF63E
FFFFFCE1
FFFFFDAF
FFFFFE56
FFFFFC5D
FFFFFE3A
000000A2
00000538
0000046D
000000E3
FFFFFF6E
000003E0
00000472
FFFFFD5C
FFFFF8C3
00000512
FFFFFADA
0000001D
0000019D
FFFFFD70
FFFFF7F4
FFFFF8B5
000009EA
00000940
00000925
00000587
000008D3
FFFFF748
FFFFF65F
0000028B
00000670
0000056E
000004AF
000009BA
FFFFFEAA
00000386
FFFFF578
FFFFF8D9
00000548
FFFFF738
0000083E
FFFFF6E2
000006D0
000000FD
000005B3
000005E8
000005F5
00000950
FFFFF963
FFFFF7EC
FFFFF88A
0000047F
FFFFF650
FFFFFF96
FFFFFBE7
FFFFF040
000003F2
FFFFFA45
000006F4
FFFFFA55
FFFFF8F8
FFFFF6E6
00000741
0000063A
FFFFF85D
FFFFF73D
FFFFF4A5
FFFFF329
0000015A
FFFFF7B5
FFFFFF7F
FFFFF8EB
FFFFF937
FFFFF6DD
FFFFF4EC
00000128
FFFFF7BB
FFFFFE42
000001AC
FFFFFE6D
FFFFFE4C
00000088
FFFFFF99
FFFFF620
FFFFFA36
00000615
FFFFFD62
FFFFFCD1
FFFFF7BC
0000031A
00000516
FFFFFDDD
000001EA
00000782
FFFFF60C
00000379
FFFFF8A6
FFFFFB78
0000098D
FFFFF7F1
000007C2
000002B4
000004F1
FFFFF773
000001EF
00000725
FFFFFE57
FFFFFBAF
0000093F
FFFFFC92
FFFFF619
00000049
000002F7
000006EA
FFFFFD15
000002F9
FFFFFA6A
FFFFF9E1
00000410
0000004F
FFFFFE43
00000690
FFFFF2E8
FFFFF725
FFFFF82B
0000046E
00000A2C
FFFFF762
0000005C
0000092F
FFFFF6C6
000006C1
FFFFF545
FFFFFB56
0000051F
00000667
FFFFF63D
FFFFFC80
00000894
FFFFFAA6
FFFFF863
000003AF
FFFFF16E
FFFFFD18
FFFFFB76
FFFFFABE
FFFFEA72
00000328
00000766
000008CB
0000072E
FFFFFA0A
FFFFFFEA
FFFFFC91
00000167
00000782
FFFFFCCA
00000425
000000B1
FFFFF882
FFFFF8B1
FFFFFB47
00000692
0000071B
FFFFF8C8
FFFFFA1E
00000334
FFFFF9E4
0000099F
000000DE
FFFFF8B6
00000AC6
00000824
FFFFFC15
FFFFF94A
000008D6
00001012
FFFFF9B4
000002CF
00000644
FFFFF813
00000B5F
00000B94
00000023
FFFFF43C
00000B21
FFFFFCCA
00000429
00000015
00000A39
0000083E
00000D66
FFFFF74A
000001DA
00000801
FFFFF548
000001FD
FFFFF582
FFFFF622
FFFFF99B
00000069
FFFFE6CB
FFFFF72C
FFFFF2BB
FFFFFA18
000005AE
00000012
FFFFFDA6
00001061
00000416
000000CB
00000669
FFFFF62A
FFFFFBC6
000001B5
000000F8
00000256
FFFFFA83
FFFFFBF6
00000516
00000198
00000932
000008BF
FFFFFE0C
00000322
FFFFF881
00000788
0000084B
0000078A
000008FC
FFFFF720
00000E4D
FFFFFDD0
FFFFF41C
00000665
FFFFF4DA
FFFFF94E
FFFFF96F
FFFFF81D
FFFFFEBB
000004DF
FFFFFB47
00000BC5
00000BBA
FFFFF98B
00000AEA
FFFFF6C0
FFFFFD2C
FFFFF22D
FFFFF70A
FFFFF25B
FFFFFBAC
FFFFFA26
FFFFF3AE
FFFFF712
00001822
00000839
0000036E
00000668
FFFFFE3B
000005AB
000003FD
FFFFF878
000003DE
00000977
0000035C
000006A2
FFFFFB29
FFFFFF6D
0000056D
00000680
000006D2
FFFFFD92
0000070C
FFFFF931
FFFFF746
0000045C
FFFFFF6E
FFFFFCAB
00000524
00000582
FFFFF85B
FFFFF53C
00000000
FFFFF8F7
FFFFFF9C
FFFFF67C
FFFFF898
000000F9
00000A63
0000084D
00000813
FFFFF80B
000007AD
00000842
FFFFF89D
000005B5
FFFFF86C
00000718
FFFFFC0A
00000578
0000094E
000009FD
FFFFFEDB
0000076B
000008DC
FFFFFC11
FFFFF840
00000530
00000B8B
FFFFFD02
000002A5
FFFFFB96
00000622
000000E1
00000473
0000046C
FFFFF31D
00000784
000007F5
00000F7A
000004D8
00000609
00000F3C
0000122A
0000070A
00001715
FFFFFFC5
FFFFFB9C
000006C7
00000768
000009CB
00000523
000005A9
FFFFFDB7
000005E1
FFFFFF3C
00000419
FFFFF954
00000249
FFFFF7B8
FFFFFC62
000008DF
00000491
FFFFFE3D
FFFFF258
FFFFFF0E
FFFFF660
00000421
FFFFFD98
FFFFF9E4
000006F6
FFFFF236
FFFFF7D7
0000041F
000005CF
0000025E
FFFFFBDF
0000022D
FFFFFA03
0000022D
00000986
FFFFF866
FFFFF8EB
FFFFF894
FFFFFE25
000006BF
00000D8E
00000AD4
00000855
00000B32
00000052
00000C83
00000643
000001FA
00000B5B
FFFFF860
000008A8
00000867
00000985
00000B28
FFFFEE43
FFFFF20E
FFFFFB3C
FFFFF91D
FFFFF0F0
FFFFFA64
FFFFF751
FFFFF0F2
FFFFF226
0000035F
FFFFF855
00000488
000005CE
FFFFF915
FFFFFBD7
000002E6
FFFFF8C1
0000087A
000003EA
FFFFFC1F
00000056
0000085B
FFFFFAF2
000008F0
FFFFFCB8
FFFFFF0D
FFFFFEF9
FFFFFA9E
000007DC
FFFFF808
000008AB
000003CC
000000EE
000004E8
FFFFFDD8
00000903
00000244
FFFFFCB8
00000774
FFFFF8BE
00000208
FFFFF7DD
FFFFFA58
00000703
FFFFF9B0
FFFFFF08
FFFFF724
000005E9
FFFFF52C
0000071C
000006B9
FFFFF861
FFFFFE1F
00000147
FFFFF6E4
000000A5
000002B3
FFFFFA15
0000098A
00000285
00000631
00000432
FFFFFF2F
FFFFF6D4
000000D9
0000029D
FFFFFF1F
FFFFFA9E
FFFFFE52
FFFFF99C
FFFFF3C0
FFFFFA08
FFFFFC52
000006F4
FFFFFBF2
FFFFFD21
FFFFF50E
000008CF
FFFFF93F
FFFFFE9B
000009DE
FFFFF912
FFFFFEAF
FFFFF881
FFFFFE7D
FFFFFDEB
0000009B
000009AF
0000044C
000001EA
FFFFF9A7
00000463
FFFFF949
FFFFF834
00000115
00000946
00000738
0000058D
FFFFF64B
0000065C
FFFFFF0B
FFFFF8FF
000002FC
000001C1
00000236
FFFFF851
000008F7
00000187
FFFFFAE2
FFFFF5BB
00000917
000005E8
000003D2
FFFFFFCC
00000A9B
FFFFFDA7
00000C24
00000DA0
FFFFFC6B
000007D7
000006E5
00000A96
000009B7
000008E4
FFFFFB37
000006F9
FFFFF9A5
000004D0
00000056
FFFFF980
FFFFF633
FFFFF511
000003C9
000004A3
000001CF
FFFFF1CC
000000E3
000004C0
FFFFEEEA
FFFFFF1A
000004C0
FFFFF89E
FFFFED51
FFFFF515
FFFFFE71
000007D7
00000585
FFFFFFA9
FFFFFE03
00000C7F
0000075C
00000060
00000C96
FFFFF94F
FFFFFFB7
00000404
00000304
FFFFFB86
000007E6
000009FA
FFFFF9AF
FFFFF704
FFFFF991
FFFFF46D
000002A1
FFFFFDCA
FFFFFDEF
000009AC
0000058C
00000019
000001B9
FFFFFC41
000005AC
FFFFF66B
FFFFF9C3
FFFFFC3E
FFFFFBF9
FFFFF55C
FFFFF982
FFFFFE9A
00000249
00000037
000000B0
00000722
FFFFF945
00000918
FFFFF869
00000348
000000B2
FFFFF6B9
0000095B
000001ED
FFFFFC41
FFFFF9F4
FFFFFA58
00000303
0000085B
FFFFF6BA
0000057E
0000073A
00000444
FFFFFFFB
0000069A
000003C5
FFFFF9E3
FFFFF9DC
FFFFFBF9
00000AA1
00000B9D
FFFFFC85
00000150
000004A9
00000852
FFFFF856
FFFFF9D8
000000A8
FFFFF7B7
FFFFF818
FFFFFBC5
FFFFF6E9
FFFFFC71
FFFFFEE7
000004B5
FFFFFB21
FFFFFBC8
00000627
FFFFFBA5
0000084C
00000380
FFFFF8D6
00000471
FFFFFBCB
000004AD
FFFFF791
FFFFFC6A
FFFFFB60
FFFFF773
FFFFFBA9
FFFFF8D2
0000040B
00000745
00000499
00000AE2
00000294
FFFFF9BE
FFFFF836
00000C76
FFFFFDF7
FFFFF726
00000D9B
000003B3
00000433
00000006
FFFFF798
00000377
000000BC
FFFFFBCB
00000384
FFFFF302
FFFFF4C3
FFFFFFC3
0000051E
FFFFF8C9
FFFFF820
0000061B
FFFFF713
FFFFF611
FFFFFE4A
00000232
FFFFF4A5
000000D5
FFFFFA1D
FFFFF811
FFFFFD3A
0000073E
FFFFF409
FFFFFE0D
FFFFFFDA
FFFFF4E8
0000015E
FFFFFEE1
FFFFFDB2
000008B0
0000064B
FFFFFF59
000009A7
FFFFFB7E
FFFFF6BE
FFFFF8F8
FFFFFC51
000009AF
000003FD
00000006
FFFFF8C0
FFFFF981
0000004D
FFFFF981
FFFFFE5D
0000084C
FFFFFF16
000005FB
000007C9
FFFFF508
00000038
000009F0
000008C5
FFFFFABC
00000255
FFFFFE43
00000748
FFFFFDA6
0000015D
00000534
000000FA
000001AC
000001AB
00000267
FFFFF5F8
FFFFF731
000003A7
FFFFFE97
0000008F
FFFFF750
FFFFF693
FFFFFA70
FFFFFB4E
000003D6
00000612
FFFFFF9E
FFFFFB00
00000363
FFFFFAF1
FFFFFEE8
00000DF9
FFFFFE18
FFFFFBB2
00000299
FFFFFD71
0000038C
FFFFFAD7
000003ED
FFFFFF29
000006E9
0000015E
000004E8
000004F6
FFFFF883
000005F3
00000557
000007F6
00000046
00000451
000006C0
00000961
00000453
FFFFFA6F
FFFFF723
FFFFF5EF
FFFFFE30
FFFFFD5B
FFFFFC43
00000AE7
FFFFFC78
FFFFF9A6
FFFFFFD3
0000030A
FFFFFBC2
000007EB
FFFFFB87
FFFFF892
FFFFF633
FFFFFE2F
0000028A
FFFFF7CA
FFFFFA92
000006F1
000007E1
FFFFFC56
00000ADC
000008AB
00000525
FFFFFBD4
FFFFFFE4
FFFFFE9F
00000A70
00000FE7
FFFFF9D7
00000061
FFFFFA0D
000002E2
FFFFFF25
FFFFF950
FFFFF1DA
FFFFFBC4
000006ED
FFFFF9FE
FFFFFEAB
000000FE
000004BB
000014EE
0000097B
FFFFFB17
00001ED2
00000ED8
00001595
FFFFFB8A
FFFFFF9C
FFFFF5FA
FFFFF7D2
000007C5
FFFFF7BF
FFFFFD35
00000238
00000747
000003B1
00000AFA
0000073B
00000827
FFFFFFA6
FFFFF850
000006BE
FFFFFB0B
00000ACD
0000089F
000000BC
FFFFFC21
FFFFFB9B
000008B4
00000772
00000579
000009DE
FFFFFF34
FFFFF774
FFFFF8C8
00000150
FFFFFA94
000006DF
FFFFF9D9
FFFFF1D7
FFFFFEB9
FFFFFDE2
FFFFF0D6
FFFFF769
FFFFFD3E
FFFFF16C
FFFFF719
00000335
FFFFFA2E
000004E3
000007FC
00000A3A
0000043A
FFFFF98D
000001CE
FFFFFF34
00000A7C
00000595
00000806
FFFFFE2E
0000000A
000003AD
FFFFF946
00000605
000007BA
FFFFFFDD
00000280
000003D5
FFFFFF5D
000002FC
000009B8
FFFFFF6B
00000655
0000010F
00000313
0000096F
FFFFFA01
0000005A
00000847
FFFFFD53
FFFFFD12
000002DD
00000326
FFFFF675
0000059E
FFFFF8B3
000000D8
FFFFFFAF
FFFFFCA3
00000033
00000774
00000919
FFFFFDF4
00000243
FFFFFC61
00000A49
00000C59
00000539
FFFFFF0B
FFFFFC17
FFFFF8A7
FFFFFBC9
00000008
FFFFFB07
000001FF
00000CFB
FFFFFB09
0000017C
0000030A
00000932
00000903
FFFFFD5F
FFFFFE69
FFFFFAF3
FFFFFDF4
00000222
00000304
FFFFFBE1
FFFFF8F5
FFFFFB63
FFFFFD3F
000003BF
000000B6
000003C7
FFFFFE1A
FFFFFCFD
0000002D
FFFFFBD4
000008D1
FFFFF674
00000632
000006DF
000008C5
FFFFF55D
FFFFFAFC
000005AD
00000156
FFFFFE11
00000876
00000883
FFFFFA73
FFFFFFF8
000005DB
00000016
FFFFF82F
00000545
FFFFF6E4
FFFFFF4D
0000057E
00000BE8
FFFFFD3A
00000879
0000044A
000007FB
FFFFFBDA
000000E0
FFFFFF60
FFFFF8ED
FFFFFB80
FFFFFDA2
0000089D
FFFFFBE9
0000050D
FFFFF8C7
FFFFF9AC
FFFFFB96
00000B08
00000126
000007F4
00000A93
000002F0
FFFFFCA0
FFFFFADC
FFFFF945
FFFFFEDC
FFFFF973
FFFFFA4B
000008CA
FFFFF6EA
FFFFF8B7
FFFFF8EC
FFFFF9C5
FFFFF467
FFFFF6B4
FFFFF24C
FFFFFBFB
FFFFF77B
FFFFFF34
000006A7
0000042C
0000071D
0000061A
FFFFFA27
00000639
FFFFFB28
FFFFFADB
00000385
00000008
FFFFFC9B
000001E3
00000621
FFFFFB63
FFFFFAEA
0000054B
00000442
FFFFF689
000002E3
00000AC5
0000089B
FFFFF878
FFFFFD7C
0000005F
FFFFF8E7
0000079B
FFFFF7A9
00000977
FFFFFF29
00000061
FFFFFB48
000005B4
FFFFFD8D
FFFFFDCC
0000101E
00000BB3
00000BA5
00000660
FFFFFC06
FFFFFD9F
00000CB8
000009D8
FFFFF89D
FFFFF29D
FFFFFFF9
00000BB7
FFFFFECA
0000038A
000009C2
00000730
FFFFFD2F
00000017
000005C1
FFFFFCC1
00000F31
FFFFFE78
FFFFFB20
FFFFF258
00000608
FFFFEDE4
FFFFEF4F
FFFFFA2C
FFFFFC55
00000767
FFFFF9FB
00000379
FFFFFCD3
000009F3
FFFFFC20
00000833
FFFFF4BB
FFFFF476
FFFFFC67
00000718
FFFFFDD1
000001E7
FFFFF91F
FFFFFB5A
00000187
000009FB
000006A7
000000D9
FFFFFD04
FFFFF7A7
FFFFF8EF
00000E07
FFFFF567
0000008A
FFFFFDC4
00000A9D
000006BD
000000F2
000001F0
000006C3
FFFFFD4A
FFFFFE75
000009A8
FFFFF963
00000A00
00000001
000000C1
00000B3C
FFFFFEF6
00000490
0000081C
FFFFFAF6
00000C37
000007AC
000000D4
000006B1
FFFFF68D
FFFFF82F
FFFFFA2B
0000065C
000000BE
00000AEE
000001A0
00000A4B
FFFFF72A
FFFFFD57
000000E9
FFFFF807
000005E1
FFFFF65B
00000DBC
000007E0
00000C67
00000463
00000228
FFFFF410
00000C72
00000F86
FFFFFBF3
000004F9
FFFFF550
00000264
FFFFF6E9
FFFFF56C
FFFFFDC2
FFFFFD56
000005BD
FFFFF45F
00000A44
FFFFF7A4
00000C02
0000093E
FFFFFD91
FFFFF959
00000776
FFFFF967
00000A2F
FFFFFFEB
FFFFFAC7
000005ED
FFFFFD3F
FFFFFBC0
FFFFFF79
FFFFF4DA
FFFFF1A2
FFFFF9B4
FFFFFC4F
0000085F
FFFFF75D
00000500
00000342
000003B9
FFFFFEBF
000003FC
FFFFF9E3
FFFFFFC1
FFFFF697
00000900
000000E3
FFFFFA73
00000A2B
FFFFF501
FFFFFD4A
FFFFF5A6
000004E8
00000A72
00000C87
00000665
00000788
00000438
FFFFF816
FFFFFB41
00000A41
000003AE
00000964
00000C60
FFFFFCA4
00000893
FFFFFBAD
00000287
FFFFF81F
00000474
000003EA
FFFFF8B6
00000AE2
00000B39
FFFFF4F1
0000059B
FFFFFF28
FFFFF9B4
00000777
00000496
FFFFFB95
00000B9F
FFFFFF0F
FFFFFD6D
000009BB
000003C3
FFFFFF04
00000099
FFFFFC3C
FFFFFB40
000004C4
00000AA4
000002AE
FFFFF826
FFFFFA39
FFFFF3A3
FFFFFCF3
00000710
000004B5
00000102
00000339
FFFFFF49
FFFFFBA4
0000060E
FFFFFAA7
FFFFFE59
FFFFF621
FFFFF493
FFFFF47A
FFFFFE91
000003A5
FFFFFC83
FFFFF647
FFFFFDA4
000003D4
FFFFF775
00000468
FFFFF9B4
0000014F
000009FB
FFFFFAD0
00000005
00000576
FFFFFC41
00000EC1
00000363
FFFFF786
00000699
00000874
000002F6
000000C2
0000020B
00000766
FFFFF36A
FFFFF63E
000002C1
FFFFF2CF
000004CF
0000018C
FFFFFC46
00000B65
00000A4A
FFFFFABB
FFFFFC97
000004E6
0000025D
000004A9
FFFFFFE6
FFFFFFB8
FFFFF587
00000AB3
00000468
00000060
00000864
00000A63
0000037B
FFFFF938
000005AC
FFFFF818
0000002F
FFFFF895
00000291
000003EF
FFFFFDBC
000007C0
000002DE
FFFFFE98
FFFFF746
FFFFFA5F
FFFFF66A
FFFFFBAA
000001D2
FFFFFD3F
00000A6C
000006B0
0000015D
00000A0E
FFFFFCA8
0000008E
00000428
FFFFF792
FFFFFC93
0000011A
00000689
FFFFF923
FFFFF678
00000BAB
FFFFF6CF
00000082
FFFFFF2B
FFFFFDC4
FFFFF44B
FFFFFC6B
FFFFFC19
FFFFFA79
FFFFF71E
FFFFFF19
FFFFFAC7
00000295
FFFFF6A6
FFFFF678
00000B2B
FFFFF18D
FFFFFC01
00000151
FFFFFFCF
FFFFFE67
FFFFF9C5
FFFFFABF
FFFFFD25
00000189
FFFFF4EB
FFFFFB66
FFFFF95A
FFFFFA7C
000004CD
FFFFFCA0
000004E0
FFFFF912
00000AC7
FFFFF9B2
FFFFF710
FFFFF94E
FFFFFBF1
FFFFF799
FFFFF8C2
000001F6
000004E4
FFFFFB03
00000B6C
FFFFF91C
FFFFFFD3
FFFFFB6B
FFFFF2F9
FFFFFFDF
FFFFF874
FFFFFAE2
FFFFF91B
FFFFFD28
FFFFF3EB
FFFFF5A1
00000625
000002CF
000006F0
00000369
FFFFFB40
00000285
FFFFFA65
00000449
FFFFF47B
000005C9
00000C95
FFFFF7B7
000001C9
FFFFFF10
000006EC
FFFFF6B9
00000AE2
FFFFFC59
00002605
0000026F
00001404
FFFFFAB1
FFFFEE07
FFFFFD21
000009D5
FFFFF8B2
00000AA1
00000806
FFFFF472
0000002F
0000019A
00000321
0000015A
0000072B
FFFFFB48
00000543
0000092C
FFFFFEB0
0000056E
FFFFF8AA
FFFFF9D6
00000BA4
FFFFF679
000004A6
00000086
FFFFF1C5
FFFFF422
000002C1
00000042
000004F3
FFFFFBBB
FFFFF34C
FFFFFE4C
0000032E
FFFFFB83
00000D4B
00000626
FFFFF51F
FFFFF94D
FFFFF653
FFFFF4DE
FFFFFEE5
0000047F
FFFFF2DA
FFFFFC5C
0000010B
FFFFF388
FFFFFE03
00000A95
FFFFF9BE
FFFFF843
000004A7
FFFFF3F6
00000140
FFFFFCBF
FFFFF1B5
000004F7
00000E38
FFFFFFC6
0000084F
00000BBE
FFFFFF8A
00000CC8
FFFFF957
FFFFFA17
FFFFFF6D
FFFFFFB9
FFFFFFDA
000002AB
FFFFF658
FFFFFEA6
00000022
FFFFFE46
000001B5
000008AE
FFFFFAE1
FFFFFC52
FFFFFF07
FFFFFD3E
FFFFFCA0
00000445
FFFFF797
00000D25
FFFFFDB6
FFFFF60E
00000E48
00000CC2
FFFFF5CB
00000A68
FFFFFF03
00000AFB
FFFFF82E
00000931
000009E8
00000337
FFFFFE44
0000055E
FFFFFE6B
00000C48
FFFFFE6D
FFFFFAB5
FFFFFE76
FFFFF0A0
FFFFF32F
FFFFFD27
00000017
00000466
FFFFF5DF
00000137
FFFFFC31
0000020E
000009C8
000000D4
00000184
00000C0A
000013ED
00000507
FFFFFFCD
FFFFF3DD
00000DC8
FFFFF521
00001034
000007C7
FFFFF530
0000003D
FFFFF39C
000002FF
000009A0
FFFFF9B6
FFFFF2C1
000002C4
FFFFF413
FFFFF5AB
FFFFF9BF
000004C4
000007F6
FFFFFEA2
FFFFFF7A
FFFFF89E
000004E8
00000205
0000065B
FFFFF27E
FFFFF931
00000107
FFFFFC61
0000064F
00000364
FFFFDF2B
FFFFFA25
FFFFF995
FFFFF869
000001A8
FFFFF9F9
FFFFFE98
FFFFFB9F
00000610
00000633
FFFFFC76
FFFFFD75
FFFFF928
FFFFF82A
FFFFF3DE
0000094F
0000089E
000007B0
FFFFFCE9
FFFFFC87
FFFFF729
FFFFFFBE
FFFFFABA
000008D5
FFFFFF22
FFFFF711
FFFFFEF5
FFFFFE22
FFFFF3A7
FFFFFBF0
00000E07
FFFFFC43
00000D4A
FFFFFC19
000006A3
00000C05
000005BE
000008BA
FFFFFD15
0000085C
FFFFF933
00000078
000000F4
000005D1
FFFFF59F
FFFFF83F
FFFFF99E
FFFFFE65
FFFFFEBA
0000088A
FFFFFCC1
FFFFFA1D
000002BA
000002F9
000001F1
FFFFFA77
00000415
FFFFF92C
FFFFFE40
000002B5
FFFFF6B6
000009E3
00000893
FFFFFDAE
000005B6
00000932
00000844
000003D7
0000045D
00000B26
00000AEE
FFFFFAB9
000003A7
00000B55
FFFFFAC9
00000B32
00000F90
000007DD
FFFFFD7C
00000AB1
FFFFFB12
00001055
00001258
0000059E
00000884
000001F7
FFFFFB58
00000195
FFFFFF3A
0000068A
FFFFFD40
00000498
FFFFF540
00000532
00000ECB
000009DA
00000A10
0000021F
00000B52
00000B8D
FFFFFAAE
FFFFFDAD
0000071C
000009F7
FFFFFCE6
FFFFF763
00000426
FFFFF5EE
FFFFF62A
FFFFFCD1
000005D5
00000337
00000631
FFFFFCF2
FFFFFDBB
FFFFFB66
000006AF
FFFFFB40
FFFFFE1F
00000466
FFFFF888
0000048A
000004F0
FFFFF64C
FFFFFAB4
00000AD6
00000894
000002E6
000006B3
FFFFFEF6
00000934
0000016F
00000047
FFFFFC1D
000006B5
000007E2
0000056B
000001B0
FFFFFCB4
FFFFF80C
FFFFF6FA
000000C5
000001D6
FFFFFE83
0000016F
00000257
FFFFFE2C
FFFFFDBB
0000057A
00000668
00000B2F
00000E56
00000A73
000001FD
00000133
00000046
FFFFF865
FFFFFD68
0000022E
FFFFF70D
FFFFFC65
FFFFFBA7
000003DA
00000904
00000264
FFFFFE5D
00000628
FFFFFE89
FFFFF9CF
FFFFFAD4
FFFFFDEF
FFFFFD5E
FFFFFCE6
00001382
00000B11
000006AE
00000486
FFFFFEB8
FFFFF7AB
FFFFFA3C
FFFFF575
FFFFFBD2
FFFFFBD1
00000213
000007DF
00000462
FFFFFA34
FFFFF4CB
FFFFFC5C
00000596
000001AB
FFFFFA51
FFFFFB1C
00000341
000004BD
00000A47
00000611
00000CC5
0000061D
00000D7B
000007D8
FFFFF784
FFFFFCEF
0000014A
000009F7
FFFFF988
FFFFF96C
00000847
000006D4
0000018E
FFFFF98F
000006C3
00000430
00000053
000003B6
FFFFFED2
FFFFF4DA
00000184
000001B2
0000049A
00000833
FFFFF510
FFFFFCCA
FFFFF9DF
FFFFF901
FFFFFC22
00000542
00000964
FFFFFACB
FFFFFE12
FFFFFEBC
FFFFFC04
FFFFF9C4
FFFFFC8F
FFFFFD18
00000203
000006A0
00000037
FFFFFE84
00000A2B
FFFFFA2A
FFFFF8AB
0000024A
FFFFFC45
FFFFFCE8
FFFFFBA3
00000839
00000211
FFFFF874
FFFFF7FA
0000017E
000003E4
FFFFF9E9
0000034C
0000058C
FFFFFBC5
FFFFF982
FFFFF8EA
FFFFF91B
0000093E
FFFFF739
00000506
0000000D
FFFFF9AF
000004BA
000008B8
00000B41
FFFFF6E6
FFFFFA24
000006C6
00000619
000008CF
FFFFFD85
FFFFFD6C
000002B1
00000932
FFFFFFC2
000005A6
000008A0
00000FF1
000003F7
FFFFFD44
FFFFFC74
0000035C
000003A8
00000AAD
000009A6
000003CC
FFFFFCC3
00000AFE
000004BE
000006CA
000001A9
0000032C
FFFFF653
FFFFF974
FFFFFEDF
FFFFFB22
FFFFFDD7
00000469
FFFFFDC2
FFFFF89C
0000009F
FFFFFC17
00000272
0000015E
000004FC
FFFFFD90
FFFFF915
FFFFF9CD
FFFFFB4B
FFFFF887
FFFFFF66
FFFFF747
FFFFF6C3
FFFFF55A
00000517
00000572
FFFFFD46
FFFFFCDB
FFFFFFFD
FFFFF4C4
FFFFFD8E
FFFFF997
FFFFF936
000000EF
FFFFF8E7
00000227
FFFFF9C1
FFFFFEE3
000006C7
FFFFF814
00000362
0000035D
000001A9
FFFFFC70
FFFFFC87
0000032A
00000457
000001AC
00000091
FFFFF934
FFFFF72C
FFFFFFC2
FFFFFB25
FFFFFE6C
FFFFF7BC
FFFFFB3C
000007B5
00000681
FFFFF2AE
00000142
FFFFF5A4
0000067B
FFFFFB0F
FFFFFA8F
FFFFFD00
FFFFF640
000003FF
FFFFF466
FFFFF6D6
000003D1
0000093F
0000059C
FFFFFA30
FFFFFBB0
000004F2
FFFFF875
FFFFFD2C
00000543
FFFFEFB8
0000038B
FFFFFDD9
000003AD
0000046C
00000407
00000A37
00000A6C
000006CD
00000B10
00000C49
00000361
000002ED
000000DB
FFFFFF59
00000113
FFFFFBF2
FFFFFFCC
00000783
FFFFF6F0
00000187
000005B7
00000896
000007FC
FFFFF662
00000094
00000492
0000047C
FFFFFF62
FFFFFD8F
FFFFFA40
00000102
000005E3
FFFFFEFC
FFFFFA0A
FFFFF983
00000D16
FFFFFB26
00000822
FFFFF63E
00000914
FFFFFDE0
00000B3E
00000410
FFFFFFDD
000008CD
0000041C
FFFFFCB1
00000805
00000E48
FFFFFA3D
000009FC
000001E6
FFFFFE6F
000005DC
FFFFFF9E
0000034B
FFFFFE23
0000002C
00000BAC
000006D0
FFFFFED8
000009C3
00000C43
000005B9
00000403
00000460
FFFFF8D8
0000075D
00000974
00000651
000009EC
0000070D
0000051D
FFFFF5BD
000008DA
FFFFF66A
FFFFF63A
FFFFFCDE
000008AE
FFFFFEDE
00000A02
FFFFFC12
00000C7B
FFFFFA23
000003C4
00000758
FFFFF7C6
000002C1
FFFFFC43
FFFFF9BB
FFFFF83A
FFFFFAC4
FFFFF9CD
0000072B
000004CB
0000066B
FFFFFFF0
000003B3
00000559
00000531
000002F2
FFFFFBA7
00000747
00000A29
FFFFFC9F
FFFFFCB2
000007C4
00000176
FFFFF5FF
000007EA
FFFFFBBB
00000942
FFFFFAA7
FFFFFC61
FFFFFFD5
00000419
FFFFF948
FFFFFACE
0000038B
FFFFFA08
FFFFF7D1
FFFFF4E7
000005A6
00000A4C
00000053
FFFFF6AD
000001A6
0000066F
FFFFF608
FFFFF970
FFFFF7E1
0000004E
00000643
FFFFF5FC
FFFFF74E
FFFFF84B
FFFFF6CA
00000269
00000374
0000045F
0000058E
FFFFFAEE
FFFFFCE3
FFFFFDF6
FFFFFF3B
00000585
00000845
FFFFF7DB
000000D1
00000235
000005E9
000002F2
0000004B
FFFFFE1D
00000348
00000C0D
00000F6F
00000851
FFFFFE9D
000008F6
00000BE2
00000143
00000E82
000003B9
000002BF
FFFFFA77
FFFFF673
FFFFF832
FFFFF513
000008BC
00000542
000003C3
00000853
000009D9
FFFFFFA5
FFFFFA8C
000008A7
00000CBC
00000287
00000ED0
00000E7E
00000471
000004C7
00000336
00000722
00000517
0000013C
00000928
000002A4
FFFFF8B9
FFFFF7AA
FFFFFDF1
00000817
00000465
0000057B
000000B0
FFFFF887
00000406
FFFFF879
FFFFFBDA
00000766
FFFFFEA8
0000031A
FFFFFD12
00000C02
FFFFFB34
FFFFFFDA
000009F6
FFFFF68F
00000988
FFFFF500
00000630
0000012F
FFFFFAF4
FFFFF843
FFFFFCB0
FFFFFF91
FFFFFB1D
00000121
00000549
FFFFF92C
00000709
000009EB
00000098
0000046F
00000576
FFFFF951
FFFFF578
FFFFF3D5
FFFFFF34
FFFFFD83
00000407
000001E2
000008C2
00000043
FFFFFDC8
FFFFF592
FFFFF989
FFFFFC61
00000736
FFFFF6E3
FFFFF92D
FFFFF528
FFFFF4EF
FFFFFD1A
FFFFFDBF
000007B3
FFFFFDDD
FFFFFAF8
FFFFF95E
FFFFF866
FFFFF608
FFFFFA75
00000411
00000301
0000003A
000007F9
0000025A
0000054F
00000378
00000593
00000C0D
FFFFFE2D
00000787
FFFFF638
FFFFFF27
FFFFF90D
000009C8
0000030B
FFFFFF26
000007E4
00000311
FFFFF953
0000045E
FFFFF623
0000030D
00000728
FFFFF5CE
FFFFFCCD
FFFFF51A
FFFFFC5E
000002F1
00000A59
FFFFFD9D
00000503
FFFFF771
FFFFF420
FFFFF58B
00000201
FFFFFB3A
00000819
FFFFFCBC
FFFFF667
00000EC6
000008A1
00000D9A
FFFFFAD0
0000035D
FFFFF1D1
000003C3
000008B6
FFFFFC4D
00000424
FFFFFA30
FFFFF39B
FFFFFA3B
00000340
00000778
000003F3
00000252
FFFFFC1E
00000158
0000071F
FFFFFD89
00000861
FFFFFD86
FFFFFEF9
FFFFFDCA
00000A57
0000094E
000002A0
FFFFFEF8
000003B8
0000059B
00000841
0000007F
000001E0
000006D2
FFFFF8B3
FFFFFEEB
FFFFFFD5
00000573
00000367
0000090B
FFFFF7C0
FFFFF4E3
0000093A
FFFFF85D
FFFFF5FB
00000478
FFFFFDE1
00000346
000003F8
FFFFF6C9
000000FF
FFFFF88A
FFFFFC28
00000157
00000A07
FFFFFF21
FFFFFA23
00000524
00000213
0000047E
00000328
0000089A
FFFFFA6B
000002CB
00000925
FFFFFB8E
00000844
FFFFFD67
0000094F
FFFFFBE2
00000789
000007AE
0000087B
FFFFF833
000006B6
FFFFF878
FFFFEF75
FFFFFDB6
FFFFFD63
FFFFF6C7
FFFFF279
FFFFF7D0
FFFFEA36
FFFFF81F
FFFFFA71
000005BE
0000024F
00000220
FFFFFA6B
00000250
00000BEB
000001CA
000000C7
00000B84
000002FB
FFFFFF1D
FFFFFB04
00000158
000004BC
FFFFFD72
000005D3
0000044D
FFFFFCF2
FFFFF74F
00000340
00000A0A
FFFFFFAD
00000560
00000CE2
FFFFF930
000001BC
FFFFFC5C
00000504
0000003B
000002F5
00000704
000005A1
00000023
FFFFFB05
FFFFF8FD
FFFFFAF4
FFFFFC27
FFFFFDC0
FFFFF83E
000006C3
000009E2
FFFFF795
FFFFFA65
FFFFF5D8
FFFFF8C8
FFFFFA29
00000441
00000407
FFFFF5FF
FFFFFC8C
FFFFFBBB
FFFFF607
000002F7
FFFFF388
00000AB5
FFFFFD40
FFFFFC32
0000085F
00000A8F
FFFFF84C
000007D9
FFFFFE7A
000001A0
0000030E
00000311
FFFFF961
00000C51
FFFFFBD1
FFFFFD6A
00000329
FFFFFA02
00000464
000004FB
0000013C
FFFFF926
00000A55
FFFFF92B
FFFFF8D1
00000771
FFFFF934
FFFFFD80
00000A8E
00000840
00000399
00000887
FFFFF936
00000190
0000097A
00000A32
FFFFFAEC
00000724
FFFFF5B0
00000298
000005D4
000008CF
FFFFFEC4
FFFFF75F
00000300
00000964
FFFFEEFF
FFFFF695
000002CD
000002E5
0000009B
00000337
00000A01
00000997
00000CF3
000001D8
0000032E
0000078A
FFFFFA69
FFFFFA4F
FFFFF8B6
FFFFF4C0
FFFFFD91
FFFFF598
FFFFF985
000002A4
FFFFFE5E
FFFFF6FA
00000175
FFFFFD99
FFFFFD08
000001A3
FFFFFF29
FFFFFD58
00000333
00000408
00000812
FFFFFE8D
FFFFFE40
FFFFF7A9
FFFFFE85
FFFFFFBA
000000FE
FFFFFF72
FFFFF704
000004FD
00000414
0000041B
0000058A
FFFFFF88
FFFFFE36
FFFFFBC6
FFFFFE5D
FFFFF681
FFFFF9D1
000008C5
FFFFFF31
000008F2
FFFFFC12
FFFFF931
FFFFFFBC
00000230
FFFFF76E
0000082A
FFFFF59D
FFFFF4F3
0000091B
FFFFF4FF
FFFFF514
000007B6
FFFFFAC1
00000541
FFFFF7E6
FFFFF42E
000002E7
0000048B
000001B4
0000057E
FFFFF9A8
FFFFFC90
FFFFFA0B
00000096
FFFFFA6D
FFFFFE7F
00000317
000004B1
FFFFF8F3
FFFFFEA3
FFFFFEDE
000008BC
0000026B
00000098
FFFFFAD3
FFFFF908
FFFFF643
00000723
FFFFFD36
FFFFF915
00000028
FFFFFCB9
000002B6
FFFFF398
000005F6
FFFFFB1D
FFFFFD1C
000004A1
FFFFFFCD
000008F1
FFFFFF9F
00000065
FFFFFBF1
FFFFFCDB
FFFFF7A9
FFFFF64F
00000166
0000000F
FFFFF89F
FFFFFD25
00000419
FFFFFF71
000009D0
00000541
FFFFF87B
000004F5
FFFFFE13
0000033F
FFFFFFFA
000000BE
FFFFFD18
00000147
FFFFFDDB
000004C7
00000BD4
FFFFFAF5
FFFFFDFC
00000A73
000008D6
FFFFFE6E
FFFFFD70
FFFFFEF8
FFFFFEEB
0000034A
FFFFFFF2
FFFFFA68
0000011A
FFFFFB2C
00000CB5
00000B27
FFFFFE47
00000730
FFFFF530
00000102
FFFFFAEA
FFFFF7A2
FFFFF866
FFFFF7E3
000005F1
FFFFF9C1
FFFFF9E8
FFFFF5B9
FFFFF770
FFFFFACF
FFFFF8E0
0000051E
00000B5E
00000DB2
000005C1
00001BA8
000009DE
FFFFFB4A
00000813
FFFFFF56
00000081
FFFFF9EE
00000622
FFFFFBA2
0000012E
000004CF
FFFFFDDD
FFFFFE9E
FFFFFC7D
FFFFF7B5
FFFFF68F
00000C15
000003EC
000001E9
FFFFFD77
FFFFFD69
FFFFFF76
FFFFFE61
00000983
FFFFF7D2
FFFFFC8C
00000189
0000029D
00000BD6
00000074
00000600
FFFFF836
000004C5
FFFFFA64
FFFFF722
FFFFF55B
FFFFF71C
FFFFFACB
FFFFFC1A
FFFFF90B
FFFFF49A
0000051F
FFFFFD5A
FFFFF7E2
000005DF
FFFFFDD3
000004D0
00000601
FFFFFD68
00000081
FFFFF95A
000000C9
000001C5
FFFFFE14
00000214
00000328
00000541
0000054E
000009A3
FFFFF9A3
0000002D
00000371
00000333
FFFFFB28
FFFFF642
FFFFFB6C
00000695
00000827
00000791
FFFFFA8C
000004CC
00000344
FFFFFE21
000008FC
FFFFF9AF
FFFFFADE
00000674
FFFFF9E2
000008EC
FFFFFE7F
FFFFF040
00000514
000008D8
0000078A
000008E6
000001E8
000003B6
000008A5
FFFFFB04
FFFFF86C
FFFFFB55
FFFFFBBD
00000237
000005A5
00000101
000001E4
00000D4D
FFFFF118
FFFFFF73
0000045F
000003BD
FFFFFC6E
FFFFF590
FFFFFEFB
FFFFFE9F
FFFFFBCF
00000488
FFFFF81E
000000EC
00000B0C
00000350
00000E4E
FFFFFCD8
0000029A
00000B27
FFFFF878
FFFFFE52
000000B4
000006A8
0000073D
000006E8
FFFFFEB3
FFFFFD61
0000047E
0000025A
FFFFFECB
FFFFFF91
FFFFF499
FFFFF97F
000002F6
0000016E
00000106
000001B9
000003D1
FFFFFE8D
00000A49
000005D1
000006EC
FFFFF6D2
FFFFFE0C
00000047
FFFFFEC5
000006CC
000000AC
FFFFF9E7
000003FD
0000062C
FFFFFB86
0000056D
FFFFF692
00000813
00000463
FFFFFE72
FFFFFA78
00000887
000009B8
FFFFF678
000002DB
FFFFFB99
FFFFFB24
00000592
FFFFFE74
00000400
0000025E
000003E4
0000029B
FFFFF81E
000002B8
FFFFF7A6
FFFFFD1B
FFFFF8F9
FFFFF8B3
FFFFFC8D
FFFFFFDA
FFFFFECE
00000525
000004D7
00000141
FFFFFBC0
FFFFFBAF
FFFFF9AB
FFFFFA5B
FFFFFAEC
FFFFF755
0000090B
00000133
00000034
000005EB
000003B5
FFFFF91A
FFFFF9E7
FFFFFE30
FFFFF802
FFFFF6B6
FFFFF628
FFFFF936
FFFFFC3D
FFFFFB3B
00000066
0000036B
00000125
00000315
00000794
000008BF
FFFFF897
0000054B
FFFFFCEA
FFFFFD04
000008E1
FFFFFEA8
00000A0C
000009DE
FFFFFE67
000000F4
FFFFF7FB
00000522
FFFFFF40
0000085C
00000029
FFFFFD9D
000003A0
FFFFFFD8
FFFFFDC4
FFFFFD04
FFFFF6CB
00000135
00000438
00000321
0000087E
FFFFF690
0000032B
000004F4
FFFFFD77
00000B69
FFFFFEE2
FFFFFD22
FFFFF934
000003DB
0000063F
0000018B
000003E8
000009CA
FFFFFB71
FFFFFE48
00000459
00000B3C
00000188
FFFFF86C
00000962
000001C6
00000046
FFFFFEE7
FFFFF922
00000912
FFFFF619
000008D5
00000108
FFFFF9DF
000006B6
FFFFFE1B
00000758
0000013D
000004CD
0000049E
000007FA
00000A69
FFFFF8FF
00000229
FFFFFFCB
000001A7
0000096F
0000078D
FFFFF89F
FFFFFFB6
FFFFF6A0
FFFFF7C0
FFFFFD82
FFFFF8D2
FFFFF9FA
FFFFFBFC
00000AA8
FFFFF902
000001AE
0000064A
00000985
FFFFFEB1
FFFFFBCA
000002A4
000006BF
FFFFFF90
00000449
FFFFFAF3
FFFFF4EF
FFFFF84B
00000219
FFFFF901
FFFFFE62
FFFFFA0F
FFFFFE57
000007A9
FFFFFD23
00000586
FFFFFAEB
00000400
FFFFFF68
FFFFFC2A
FFFFF52B
00000170
FFFFFF80
FFFFF952
000006A1
00000F72
000009AF
00000DA4
00000BC2
0000029D
000006E9
00000352
000007F2
00000190
FFFFF973
FFFFFF52
FFFFF6E1
00000455
0000039C
FFFFFE72
FFFFFEEC
00000132
00000690
0000021F
000004A4
FFFFFF38
FFFFF54A
FFFFF4CD
00000336
FFFFF4F7
FFFFF6FB
FFFFF611
0000015D
FFFFF93B
00000648
FFFFF847
FFFFFACD
0000000D
00000896
0000093F
000004FE
FFFFFD6C
FFFFF715
FFFFF7AD
FFFFF93E
00000631
000001DB
000005D3
FFFFF79A
FFFFF857
FFFFFE6F
FFFFF960
000008F3
FFFFFBE1
FFFFF568
000006FD
000005CA
FFFFFC13
FFFFF7B4
FFFFF8EA
0000018D
FFFFFF3C
000006AC
000001E1
000001AE
00000984
FFFFFA1C
00000135
00000838
FFFFFBD6
FFFFFB14
FFFFFC14
FFFFFCA6
FFFFFEC7
FFFFF4DF
FFFFF82A
FFFFFB79
FFFFF6E7
0000098E
0000023D
FFFFF847
FFFFF791
00000653
0000078C
FFFFF951
FFFFF94C
00000880
00000684
FFFFF83A
00000000
FFFFFFF6
000001E4
000001D6
FFFFF923
000004B7
FFFFF82B
000005AC
000005F2
FFFFF796
FFFFFEFF
0000087F
00000155
FFFFF9A9
FFFFFA22
00000379
00000187
FFFFF75C
FFFFFA72
00000180
000007E6
00000001
00000A39
0000084C
000008AE
FFFFFC92
FFFFFFB4
FFFFF64A
FFFFF6F5
00000395
FFFFF5A8
FFFFFC14
00000BA0
FFFFFB05
00000688
00000AF9
FFFFFE5B
0000092F
0000088C
FFFFFB2A
00000AEF
00000BB9
FFFFF6F4
0000020C
000004F0
000002C0
FFFFFA8F
FFFFFDA6
00000649
FFFFF839
00000872
0000025C
FFFFF79C
FFFFF787
FFFFFA3D
0000046D
FFFFF648
00000188
FFFFFDE6
00000A80
0000006F
FFFFF767
00000153
FFFFF623
000006C2
FFFFFCB3
FFFFF951
0000010C
FFFFFAA5
00000455
00000B41
FFFFF621
00000102
FFFFFE73
FFFFFC08
0000038D
00000417
FFFFF69D
000001E0
FFFFFB38
00000792
0000098F
00000391
000007F6
00000A0A
00000A03
000006F8
FFFFFE2F
00000464
000004A6
000008F0
000003B4
00000367
FFFFF9A4
FFFFFAEA
000001D6
FFFFF9EE
FFFFF7AD
FFFFF825
0000019F
FFFFF6AF
FFFFFC18
0000071F
FFFFF701
000005D4
FFFFFDDF
FFFFFF17
000001E3
0000024A
FFFFF8B3
00000710
FFFFF825
00000492
FFFFFC29
00000D35
FFFFFB17
FFFFFCBD
00000764
FFFFFD0F
00000193
FFFFFCF2
FFFFF633
FFFFF7F9
0000061A
FFFFF736
FFFFF99F
FFFFFEC1
FFFFF562
00000368
000007FC
00000564
FFFFFB1F
FFFFFD44
FFFFFC89
FFFFFCF7
00000210
000006D5
00000772
00000668
FFFFF801
FFFFFCEA
FFFFFD26
00000195
00000078
000003B1
000009F6
FFFFF777
0000030E
FFFFF59B
FFFFF9D7
FFFFFD0B
00000063
FFFFF72E
000003BB
FFFFF7DC
FFFFF48A
0000051C
0000067D
FFFFFCE4
FFFFFA41
FFFFFC83
FFFFFC1A
00000844
000007A5
000007DC
00000AAF
FFFFFACC
FFFFFF9C
00000BBE
0000069B
FFFFFDBA
00000B27
FFFFFB0D
FFFFF9E1
00000063
FFFFF8C5
FFFFF619
000004F6
FFFFF2EC
FFFFF6D7
FFFFFA79
FFFFF277
FFFFF8A5
FFFFFB39
00000653
FFFFFDFD
0000045D
FFFFFD4F
FFFFF5F0
FFFFFEEB
000002E3
FFFFF93D
FFFFF6E7
000004C7
00000105
FFFFF8CE
0000066D
FFFFFB1A
FFFFFFA8
00000796
FFFFFD2B
00000603
00000A1F
0000040C
00000315
000007FC
FFFFF45E
FFFFF95D
FFFFFF4E
FFFFFA45
FFFFFB20
0000008E
FFFFF705
000008A6
000007AC
0000048E
FFFFFFC8
000002A8
00000697
FFFFFD92
00000500
000004FA
00000AC4
FFFFFB1C
FFFFF6EE
FFFFFC23
000008E4
0000095D
0000050A
FFFFFE91
FFFFFAE5
FFFFFB28
00000B1C
00000414
000008A2
FFFFFD7F
00000744
FFFFFB4D
00000202
0000097F
FFFFFF9A
FFFFFFFD
000001AF
000003D6
000002AB
00000761
00000201
FFFFFB79
FFFFFCBC
FFFFFEF8
FFFFF655
FFFFF88D
FFFFF925
000008C8
00000261
0000063B
FFFFFAC7
000007FF
00000606
00000085
000002F3
FFFFFD2A
000000F1
FFFFF6C3
000004A3
FFFFF5D2
00000686
FFFFFD02
00000143
000007DE
00000875
0000015A
00000904
0000031B
000004FB
00000A83
FFFFFEC1
FFFFF6AB
00000214
000008C7
0000064D
00000961
FFFFFEED
FFFFFED4
FFFFF86A
FFFFF86B
FFFFFB4E
0000039D
00000693
000000B7
FFFFF7B6
FFFFFF72
FFFFFDEC
0000014C
FFFFFDCA
FFFFF933
00000677
00000440
00000A17
000003A4
FFFFF8B7
FFFFF7C1
0000089E
000004B0
0000015D
0000012C
FFFFF7FB
FFFFFB6D
0000068A
FFFFFF63
FFFFF739
FFFFFF39
FFFFF693
FFFFF9A1
FFFFFCB3
000002CB
FFFFF7E4
00000889
00000023
000009B7
FFFFF83C
FFFFF70A
00000356
FFFFFF79
0000070F
000006EB
00000359
00000459
0000050E
00000589
000001FB
FFFFF53B
FFFFFD33
FFFFFE82
00000102
00000479
00000939
FFFFF636
FFFFFE66
000003CC
FFFFFD95
000004F7
000001F3
FFFFFF58
000003DD
FFFFFCF3
FFFFFA30
00000692
0000059A
FFFFFAFF
000009C4
FFFFF7CD
00000911
FFFFFAEF
0000020B
0000050A
FFFFF8DF
00000E56
00000378
FFFFFA6D
FFFFFD02
FFFFFB83
FFFFF4E7
FFFFFCE8
FFFFF87F
FFFFFC51
00000211
0000012B
FFFFFEA2
FFFFFB32
FFFFFEFB
00000D1E
000006F3
000004BB
FFFFFF1F
FFFFF90B
FFFFF7B4
FFFFFEF2
000007D1
FFFFF631
00000C22
000006F0
00000A46
FFFFF63F
FFFFFDEA
FFFFFAD8
FFFFFC79
FFFFF759
FFFFFF12
FFFFFD23
FFFFF46B
000002B4
00000851
FFFFF9BC
0000083A
000002B7
FFFFFF6F
0000039A
00000D48
00000078
FFFFFA80
00000492
00000373
00000348
000005D4
0000022B
FFFFF783
FFFFF81F
FFFFEEDF
FFFFED19
000002FA
000002FA
00000129
00000618
FFFFFF86
00000221
00000272
FFFFFD15
FFFFEC5E
0000025E
000001CC
FFFFFACE
FFFFF7DF
FFFFF833
FFFFEB53
FFFFFC4E
FFFFFB55
000004B5
FFFFFE4A
00000756
FFFFFB1D
FFFFF905
0000023E
FFFFF8C6
FFFFFEC6
FFFFFC17
FFFFF970
FFFFFF7F
000000FB
00000480
FFFFF4FC
FFFFFDE4
00000100
FFFFFDA9
000005CF
FFFFF630
FFFFF84D
FFFFFCFB
FFFFF995
FFFFF509
000003B5
000001A9
00000F14
FFFFFCFB
FFFFFBBC
FFFFFCDC
FFFFF83E
00000094
FFFFF422
000002E6
FFFFF7BF
0000014E
00000202
000004CF
00000BD0
FFFFFEFB
FFFFF6E8
000000C0
00000452
FFFFFC7E
0000072B
00000647
FFFFF8D4
000009A8
00000622
FFFFF653
000003F0
FFFFFF32
FFFFF447
00000A09
00000724
000007D4
000002BB
000003A6
000006BE
FFFFFD30
FFFFFE80
000006F6
000005F6
000004CA
FFFFF760
FFFFF6DB
00000496
FFFFEFAF
FFFFFFE7
00001007
FFFFFC20
FFFFFFF7
00000A49
000003A7
00000536
000008F9
00000D02
000001CE
FFFFF8DD
FFFFF686
FFFFF331
FFFFFE8F
FFFFF64E
00000808
FFFFFC10
00000435
000007AC
00000B38
FFFFFA8B
00000DC3
00000524
000003E0
00000C2A
000008F6
00000301
0000090F
00000292
0000027E
FFFFFEA5
000008B3
00000670
00000608
000006C2
FFFFFE24
FFFFFB5E
00000932
FFFFFB43
00000076
FFFFF6C4
FFFFF74E
FFFFF88F
FFFFF7B4
FFFFFEC4
0000057C
00000813
00000900
FFFFF6E2
00000248
00000798
FFFFF407
000002DA
FFFFF6DE
FFFFF972
FFFFFD84
FFFFFC30
FFFFF38D
FFFFF778
FFFFF7B4
000000B0
0000016C
FFFFFDF7
00000A53
FFFFFD47
00000C4A
00000460
FFFFFA01
000003B2
00000747
00000657
00000AB3
FFFFF7F7
00000668
FFFFF702
FFFFF4B4
FFFFF5E6
FFFFF8F2
FFFFFD82
00000249
0000039F
FFFFFBD5
000009E8
00000C29
00000487
FFFFF9E0
00000398
000008EA
FFFFF637
FFFFFFD8
00000A75
FFFFFB9C
FFFFFBBB
FFFFFBCF
FFFFFEB1
00000839
FFFFFE84
00000453
00000540
FFFFFAB0
FFFFFF37
FFFFF200
00000244
000001A2
00000097
FFFFFBCB
FFFFFCC6
FFFFFC5B
0000011A
FFFFFA76
FFFFF00F
00000BD9
00000556
000001B0
000009FA
FFFFFB68
00000055
FFFFF736
FFFFF7FF
FFFFF477
00000289
00000543
000007A9
FFFFFDCF
00000A0A
FFFFFE9F
FFFFF6E3
000007D2
00000783
000008D4
FFFFF9E8
000004D1
00000830
000006B7
000001CE
FFFFF875
FFFFFB86
00000B0B
FFFFF78D
000005CA
FFFFF9EF
0000032A
FFFFF740
FFFFFDF5
FFFFFB36
0000064F
FFFFF78F
FFFFFF17
FFFFFCA0
FFFFF541
00000752
FFFFFC57
FFFFFA07
FFFFFE83
000001FF
000000A0
FFFFF475
FFFFF769
FFFFFC6F
FFFFFF9F
FFFFFC4D
FFFFFD11
0000050A
FFFFF60A
000005C2
00000B42
00000209
000002C3
0000093E
00000181
000003AC
00000938
000003BA
00000DC7
0000078A
00000366
00000398
00000798
FFFFFC9B
000002DC
FFFFFA40
0000059F
00000550
FFFFF6B9
FFFFF71C
FFFFFB00
FFFFFE0B
FFFFFB42
FFFFF834
FFFFF901
00000744
0000028F
FFFFFBD5
FFFFFC47
FFFFFBA5
FFFFF82F
FFFFFF86
000005E0
0000074B
00000226
00001295
FFFFFDA7
00000A22
00000331
FFFFF835
FFFFF9A0
FFFFFA66
FFFFF5E0
0000035D
0000035D
FFFFFFCC
FFFFFD49
00000186
FFFFFABD
0000056A
FFFFFDC1
000001F5
FFFFFB37
000006E9
0000004F
FFFFF7E0
FFFFFBDA
000002D8
FFFFFB43
FFFFF69A
FFFFF72C
000005B0
000002E8
FFFFF7E0
00000688
FFFFF93F
00000049
000009B5
FFFFFABB
00000414
0000012E
000005C4
00000FCB
0000053E
00000A8F
FFFFF8CE
FFFFFB6F
00000627
FFFFEDEC
FFFFE8CC
FFFFF5BC
00000031
0000071C
0000044D
0000089A
FFFFFF92
00000331
FFFFF78A
000001D2
FFFFFBA4
00001531
000008CD
00000DD1
000011F6
FFFFF7F2
FFFFFC14
00000BBA
FFFFF301
FFFFF227
000003B0
000000AF
FFFFF986
FFFFFC91
00000861
FFFFF62F
FFFFFBC9
000001D9
FFFFFC18
FFFFF9AB
00000128
FFFFF444
FFFFF832
FFFFF456
000003BA
00000AB8
00000616
000007C9
FFFFFC3A
FFFFFF16
FFFFF7B5
FFFFFDD3
0000041E
00000033
FFFFFFF4
000001A4
FFFFFB42
00000C93
FFFFFCE5
FFFFFCC9
FFFFF8B5
FFFFFC0A
FFFFFDB6
00000CDD
0000061C
000004C9
00000A20
0000075C
FFFFFFD2
00000079
0000069E
FFFFF8FC
00000657
00000949
0000054F
FFFFE8C7
FFFFF291
FFFFFAFA
FFFFFD9D
FFFFF3DC
00000B0D
FFFFF92D
00000FBF
000001F7
FFFFFC53
000007B2
000000D2
000007CF
FFFFFCF9
00000705
FFFFFB42
000002B8
00000709
FFFFFEDA
00000088
FFFFF8E6
FFFFFAB0
FFFFFBC4
FFFFF78E
FFFFF731
000005F3
FFFFFFED
00000565
FFFFF8AC
FFFFF7D7
00000119
FFFFF855
000000D6
000000A9
FFFFF6D2
FFFFFC4C
00000286
FFFFF785
FFFFFF5F
000007FB
FFFFFB3B
FFFFFC34
FFFFF958
00000784
FFFFF716
FFFFF88C
FFFFF617
FFFFF354
00000925
FFFFF819
FFFFF717
FFFFEBF5
FFFFF89B
FFFFE990
FFFFF1BB
FFFFF916
FFFFF908
FFFFFFC8
FFFFFB33
FFFFF979
FFFFFA2F
FFFFF7CC
00000C6C
000002E3
FFFFFA1A
00000136
FFFFF5A7
FFFFFA1A
000001AA
FFFFF2C3
FFFFF7DC
FFFFE9C3
00000A79
00000937
FFFFFEE2
00000882
FFFFF928
0000056C
FFFFFDEC
FFFFFB3E
0000075B
00000B11
00000231
FFFFF9AD
00000236
00000A90
0000042E
FFFFF35B
FFFFF40F
FFFFFF04
000005B6
FFFFFA5A
00000055
00000712
0000102B
FFFFFC8C
FFFFFAC9
FFFFFDF1
FFFFF803
FFFFFEAA
FFFFF7B1
00000264
0000061C
FFFFF922
0000046E
000001EB
000006B8
00000D2A
FFFFFF19
FFFFF7AF
FFFFFEE0
00000755
0000011E
FFFFF94D
FFFFF85D
FFFFFBDB
FFFFFA61
FFFFFC48
FFFFF648
0000081C
000008CF
FFFFFA17
00000869
FFFFF87F
FFFFFF24
00000405
FFFFFF6C
FFFFF2BD
FFFFFFEB
00000360
0000051C
FFFFFADE
000006DE
00000C98
FFFFFC5A
FFFFF40B
FFFFF68B
000005E9
FFFFFD7F
FFFFFD21
0000071E
00000368
000001B8
00000768
00000AD9
0000003C
00000203
FFFFFC3D
000004D6
FFFFFD45
00000594
00000200
000005AF
000006EC
FFFFF974
FFFFFBBC
FFFFFF64
FFFFF5FC
00000149
FFFFFDAA
FFFFFDCD
FFFFF9CA
FFFFF62B
FFFFF954
FFFFF9F3
FFFFFF27
00000092
00000A37
0000065F
FFFFFE5C
FFFFF7BC
00000A3B
0000088F
00000A77
00000F02
FFFFF867
000004A6
FFFFF345
FFFFF5BC
000000B7
00000BB9
000006C8
000003E2
00000B2E
FFFFF9AA
00000B25
FFFFFEC3
FFFFF7E1
000008C1
00000895
FFFFF29B
00000CE6
000005DE
FFFFF568
FFFFF98B
00000FEC
00000546
00000B8E
FFFFFA49
FFFFF69F
00000504
000004FF
0000085A
00000BB0
0000029E
FFFFFDF1
0000074E
00000133
000007AA
FFFFFF78
0000088D
FFFFFA58
FFFFF507
00000518
00000539
FFFFFD4C
0000003B
0000044A
00000982
FFFFFC3F
00000B3B
FFFFF8B7
00000675
0000067D
00000191
FFFFF572
FFFFFD47
FFFFFB7C
FFFFF520
000000FD
00000540
FFFFF2C6
0000009C
FFFFFA49
000008F7
00000052
00000ADA
00000166
0000083B
FFFFFE7B
FFFFF5DB
FFFFFF32
FFFFF413
FFFFF988
FFFFFEC6
00000294
FFFFF9A3
000003FD
000004C8
FFFFFA3C
00000441
FFFFF78A
0000050A
00000529
FFFFFF01
FFFFFD4F
FFFFFD1E
00000A4E
000001C8
FFFFF4D8
FFFFF629
FFFFFBBF
FFFFF713
00000143
00000245
0000029C
0000062A
FFFFF87D
FFFFFCE6
FFFFFB76
000005DA
0000097A
000007B2
FFFFFDA6
FFFFFA70
FFFFF421
00000560
00000123
FFFFFB0A
FFFFFE40
FFFFFE0A
FFFFFA05
00000768
0000072A
FFFFF9F1
FFFFFA2C
FFFFFF0A
000002A2
0000033E
0000028E
00000927
00000517
FFFFF9C9
0000046B
FFFFF6AB
FFFFFC15
0000055E
000007A1
00000B30
FFFFFA6F
00000781
FFFFFBAE
00000941
000003DE
000001CE
FFFFF8E5
000003BA
FFFFF8C3
0000028D
00000B57
FFFFFEBB
FFFFFC66
00000AB6
FFFFFB8A
FFFFFCFC
FFFFFB42
00000043
FFFFFAB2
FFFFF80C
FFFFF529
00000224
FFFFFC84
FFFFFC02
000007E3
FFFFFEF8
FFFFFBCD
00000573
00000368
00000544
FFFFF9B9
000002CF
FFFFF7A4
0000035C
00000E41
FFFFFBD3
00000667
00000A88
00000000
0000031A
0000063C
FFFFF6B2
0000066D
FFFFF929
FFFFF8AD
FFFFFBD1
FFFFFC37
00000451
FFFFFD7E
FFFFFCCD
000002E4
000003EC
0000028F
000009A8
00000003
FFFFFEE5
FFFFFB9D
000005A7
FFFFFC2D
FFFFFAC0
FFFFF669
FFFFF5B2
00000193
FFFFF94A
FFFFFA82
000002E5
00000A17
FFFFFE58
FFFFF5B5
00000594
FFFFF4D1
FFFFF742
FFFFF4B6
FFFFF053
00000504
00000737
FFFFF8EE
00000136
000009FD
FFFFF7D0
FFFFFAB6
000009EC
FFFFF578
0000004F
00000440
FFFFF92C
000006B6
000007E7
FFFFFFDC
0000062D
00000110
0000056A
FFFFFB8C
FFFFF5AD
000001D5
FFFFFA7B
FFFFF937
FFFFF941
0000094C
FFFFFA95
0000060C
0000027A
FFFFFB2E
FFFFFE2A
FFFFFC41
00000BF2
FFFFFE13
FFFFFDCB
0000036C
FFFFFE3D
000008B6
00000757
0000091D
FFFFFE18
00000549
00000088
FFFFF88E
FFFFFAE9
FFFFF680
FFFFF582
FFFFFE4E
00000AA1
0000047A
000003ED
FFFFF891
FFFFFE11
FFFFF832
000000B9
0000014B
FFFFF655
00000369
FFFFFE7F
FFFFFA34
FFFFFC0F
000009CB
FFFFF778
0000066A
FFFFFB20
FFFFF420
000004FE
00000203
00000794
0000002D
FFFFFC50
00000145
FFFFFA9F
FFFFFFE1
00000125
FFFFF5EE
000006A8
00000152
00000D02
FFFFF82A
00000110
0000038D
FFFFFBEE
FFFFF980
00000020
00000204
FFFFF856
FFFFEE20
FFFFEF36
FFFFFA55
00000682
0000011A
FFFFF7CF
00000D26
000002DF
FFFFFDB4
FFFFFD54
FFFFFF68
FFFFFA46
00000D19
00000A4D
00000068
0000028E
000006C6
000004E1
00000269
FFFFFD5D
0000042E
FFFFFE4E
000002B7
FFFFFA42
0000004E
FFFFF8EF
FFFFF6AB
0000018C
FFFFF7BF
000007D2
00000613
00000512
000005BF
FFFFFD1B
000001F4
000007FF
00001190
00000403
0000024E
0000083D
00000351
00000068
FFFFFF41
000007AD
00000161
FFFFF9D5
FFFFF664
000001E6
000007C7
000004CF
FFFFF704
FFFFF7D4
FFFFF583
0000021A
FFFFFA12
000004FF
FFFFFEDE
000000E9
000005AB
0000023A
FFFFFB9C
00000520
FFFFFD98
FFFFF778
FFFFF4BB
000000D5
00000322
FFFFF8CF
FFFFF6F6
FFFFF4B3
FFFFFD13
FFFFEC45
FFFFF701
FFFFFF64
FFFFF862
FFFFF8BC
FFFFFF22
000009B6
FFFFF8BB
FFFFFC00
FFFFF9E2
000001C2
FFFFF650
0000094E
00000501
000005EF
00000231
000001CA
FFFFFED0
000005E8
FFFFF9EE
FFFFF6B2
0000004E
000002B4
FFFFF74D
FFFFFCDA
FFFFFD7E
0000045A
00000540
FFFFFA05
FFFFFF0C
FFFFF8CB
FFFFF72B
FFFFF840
0000044E
0000000B
FFFFF809
00000402
FFFFFCA6
FFFFFD3F
00000AC3
FFFFF62C
0000015E
00000668
000007C0
000005E8
00000B79
00000002
FFFFFC07
FFFFF2C1
0000046F
000001BF
000005F8
FFFFF789
000001C9
00000559
000001BB
000004B9
00000560
FFFFF923
000005AD
FFFFFC55
000008A8
00000789
FFFFFB82
FFFFF9AE
FFFFFB95
FFFFF51F
0000021E
000000D3
0000016C
FFFFFF44
000002A3
00000A53
00000651
000001B4
FFFFFB70
00000007
00000843
00000697
FFFFF321
FFFFF590
FFFFFB09
FFFFFC0F
00000484
FFFFFC7C
FFFFFBF5
FFFFF694
FFFFF68C
FFFFFAC7
00000667
FFFFF71A
FFFFF590
FFFFFB34
FFFFFE75
000003A1
FFFFFE16
000008A0
0000070E
00000C7B
00000847
FFFFF798
FFFFF56E
FFFFF611
FFFFFA0B
0000027B
FFFFF7ED
FFFFFB88
FFFFFB98
000006F6
FFFFFBD2
000007AE
FFFFF71A
000005DE
FFFFF810
FFFFFED3
FFFFF428
FFFFF047
FFFFEF94
FFFFFEDF
000007B0
000009BD
00000BDC
0000026A
FFFFF59F
000004A6
FFFFFD55
FFFFF3EE
00000037
00000794
00000166
0000024C
FFFFF9C1
000008F8
00000009
FFFFF8E6
000007AA
000006F1
00000F4D
000008E4
0000044D
FFFFF7DC
00000536
00000A48
00000477
00000A64
00000442
000004C1
FFFFF69F
000006D7
000002C1
000005E3
FFFFFB25
000006B7
FFFFF7BA
000001F3
000009FD
FFFFF71F
00000520
FFFFF803
00000AD0
FFFFFBB8
000006E2
00000379
00000392
000004E7
FFFFF93C
00000506
FFFFFBE7
0000012C
FFFFF5F5
00000926
FFFFF908
FFFFFAB7
FFFFF4A5
00000366
FFFFF4D8
FFFFF6E2
FFFFFAFF
FFFFFFD0
000003FF
00000995
FFFFFCE3
FFFFF7CD
00000354
FFFFFCA2
0000057F
000003DE
FFFFFDA3
000002A9
000004CE
000005DD
FFFFF3CF
FFFFF9B7
FFFFF612
FFFFFE25
FFFFFD84
FFFFF7F0
00000304
FFFFF894
FFFFFB91
0000008D
FFFFF9AB
000007EE
FFFFFE18
000008BE
FFFFFA36
FFFFF85B
FFFFF960
FFFFFD24
FFFFF9F9
000009FF
000005D7
FFFFF95E
00000526
00000A8E
FFFFF943
FFFFF8AD
FFFFF67F
000007AA
00000929
FFFFF271
FFFFFE70
FFFFF782
FFFFF000
FFFFFA74
FFFFF05E
000000A6
0000088A
00000BD2
FFFFF68D
FFFFF586
00000490
FFFFF7E8
FFFFF706
000004B5
0000014A
000005E5
00000D5C
00000334
00000179
00000B4A
00000996
FFFFFDAF
FFFFFF26
000002E8
00000707
000000F0
FFFFF71E
FFFFFD33
FFFFFCEB
FFFFF746
FFFFFFE7
00000328
000009B1
FFFFF7C4
000003DB
0000059A
00000588
FFFFF544
FFFFFA10
00000909
0000014E
00000790
FFFFF96D
FFFFF824
00000595
FFFFF872
FFFFFA5B
00000DA9
00000B5A
0000023B
0000001B
FFFFF87A
FFFFFE9E
FFFFF993
000004E9
FFFFFA73
000009F2
00000668
FFFFFF4A
FFFFF953
000009B2
000000BB
000001BC
FFFFFAF7
FFFFFEC8
FFFFF69F
0000089D
FFFFF741
FFFFFC9B
FFFFF862
FFFFF31B
0000038A
FFFFF85B
000003FA
00000664
0000090F
FFFFF7FB
00000373
000000DE
FFFFFE47
00000149
FFFFF9B1
FFFFF5F6
00000515
00000650
FFFFF6A7
FFFFFA68
000000C4
00000281
000005E3
00000BDD
00000DFE
00000D06
0000001E
FFFFFED4
FFFFF939
000000FB
FFFFF92B
FFFFFB90
FFFFF974
0000042F
FFFFFD96
FFFFF5D5
FFFFFC9F
00000749
000009C5
000001B8
FFFFFF46
0000096B
00000956
FFFFF867
FFFFFACC
FFFFF501
FFFFFB81
FFFFFFB6
FFFFF8E8
000008D0
FFFFFA2D
0000017F
00000850
0000064C
000001FD
FFFFF99E
00000276
FFFFF90B
000003FB
FFFFFA70
FFFFFF43
FFFFFA95
00000805
FFFFFFB1
FFFFF5EE
FFFFF73E
00000559
000000A1
00000931
FFFFFA80
FFFFFEE5
FFFFF81A
000004B7
FFFFFBC7
00000769
00000B03
FFFFFBA7
00000864
FFFFFC80
000005CF
0000038A
00000364
FFFFFC12
FFFFF6B9
00000558
000002C2
000000B3
FFFFFC95
FFFFF713
0000005A
0000003B
00000A2B
FFFFFE3B
FFFFF5E1
FFFFF6EF
000004A6
FFFFFBB9
00000692
00000419
FFFFFED9
FFFFFE69
FFFFF7AD
FFFFF7EB
0000015B
FFFFFE43
00000425
000003EE
000003A7
FFFFFB9A
FFFFF69E
FFFFFEDA
FFFFFDA9
000001A5
FFFFFE9E
0000002A
FFFFF5C2
FFFFF457
FFFFF9D5
FFFFFD41
FFFFFC4D
FFFFFCAE
FFFFF938
FFFFFAFF
0000024F
000000E0
FFFFF630
00000441
FFFFF892
FFFFF999
FFFFF78B
FFFFF179
FFFFF71D
FFFFF62B
00000109
00000424
FFFFFFFC
FFFFFB81
FFFFF9D3
0000043B
FFFFFCFB
0000037B
000001DE
FFFFF6EC
FFFFFF46
000006D2
FFFFFE58
00000547
00000767
00000611
00000083
00000C9F
FFFFF833
00000637
FFFFFEA1
FFFFF49B
FFFFFC18
0000051D
00000330
FFFFFD68
FFFFF65C
FFFFFB1D
000007BD
FFFFF78E
FFFFFE6E
FFFFFB5C
00000776
000009E0
FFFFFA10
000005BD
FFFFF87C
FFFFF705
FFFFFB49
FFFFFB91
000000C3
000008DE
00000937
000001B9
000003CE
00000664
FFFFFCFF
00000CF5
00000756
FFFFFB05
000008BE
FFFFFA52
FFFFF57D
00000701
FFFFF92D
FFFFFE31
FFFFF979
00000146
FFFFF5FE
000003A0
FFFFF927
FFFFF784
FFFFF880
FFFFFB73
000007E0
FFFFF8B0
FFFFFE90
00000797
0000060A
FFFFF74C
00000285
000003B6
FFFFFBDA
FFFFFBFF
FFFFF6FD
00000098
00000365
00000B59
FFFFFD96
00000403
FFFFFE8E
0000070D
00000714
00000092
FFFFF114
00000897
00000A6A
FFFFFE5B
000009BB
00000775
FFFFFF4E
FFFFF7E1
0000048D
FFFFF929
FFFFFA19
0000061C
000007EF
FFFFF883
FFFFF555
0000016A
00000391
0000028F
FFFFF7FA
0000039A
FFFFF80B
FFFFF72D
00000903
000007A0
000004CA
00000216
00000007
00000340
0000040D
000003EA
FFFFF7A3
FFFFFDFF
0000079E
00000456
FFFFFE0D
FFFFFF71
FFFFFA08
00000985
000002B7
FFFFFF5B
00000275
00000353
FFFFF6AE
00000120
00000195
0000033E
00000263
0000055F
00000288
FFFFFE95
FFFFF66E
00000BA9
0000074B
FFFFFE6A
FFFFFE7C
FFFFFA43
000004CE
00000072
00000790
000003A2
0000096A
000009BC
FFFFFCF1
FFFFFFC3
FFFFFD7B
FFFFF38F
FFFFF8DB
000008A1
000001AE
FFFFE9A9
FFFFEFE9
FFFFFEF5
FFFFF56B
FFFFFA29
00000996
00000821
0000029C
000004D4
000005C4
000003F8
0000072A
000009DA
000009C9
00000AC8
FFFFFA08
0000029D
00000718
FFFFF312
00000337
FFFFFCD1
FFFFEF3D
00000119
FFFFFD8F
FFFFFF88
FFFFFFB1
00000926
000003E9
00000536
00000C48
FFFFFD39
FFFFF8AD
00000CFA
FFFFF4F7
FFFFF99E
FFFFF811
000001DC
00000905
00000122
FFFFFE11
00000076
000006ED
FFFFFA46
00000ABF
FFFFFA84
FFFFFBAB
FFFFF9FE
0000092D
FFFFF5C4
FFFFFA36
FFFFF914
FFFFFB29
FFFFFD43
00000D79
00000183
000005ED
FFFFFD39
FFFFF7E1
FFFFFAA9
00000207
00000687
0000072E
0000040F
FFFFF96A
FFFFF588
FFFFFE9B
0000004E
000003FD
00000A14
000005A4
FFFFFD57
00000500
00000495
000008B7
FFFFF75E
00000B69
000004C8
FFFFF846
FFFFFD65
000006CD
00000A5A
0000019A
00000245
00000466
FFFFFC53
FFFFFEE3
FFFFFB9F
0000032F
FFFFF6FC
00000057
FFFFFB37
000005F3
000009D3
FFFFF7A5
FFFFF505
FFFFF662
FFFFF72B
FFFFF715
FFFFF0F6
FFFFF9AA
00000830
00000A20
000000B9
000005DC
FFFFFF2D
000000DB
00000A85
000009AE
FFFFF66D
000003E4
FFFFF973
00000418
00000287
00000113
00000523
FFFFF71C
FFFFFBB6
0000021A
FFFFFC46
FFFFF592
0000010D
00000077
FFFFF94C
000000BD
FFFFF491
FFFFF44B
FFFFFC54
FFFFFD9E
000004B4
FFFFF977
000005C9
FFFFF7B8
000006C8
0000019E
00000514
000009CA
000009D7
000004C2
000000E2
00000C21
00000F17
FFFFF530
FFFFF9F5
FFFFF7EA
FFFFF73D
00000055
00000AA3
FFFFF4F8
00000663
FFFFFC04
000004EA
FFFFF73E
0000061E
FFFFF9B8
FFFFF8C1
000004A8
00000497
FFFFF96A
00000974
FFFFFD0A
FFFFFDE8
FFFFF6C3
000004C5
FFFFFAC3
FFFFF929
0000024A
FFFFF45F
FFFFF48C
FFFFFCBF
00000433
0000010D
000003B9
FFFFFCFF
0000018C
00000E0F
FFFFFE00
00000FC2
00000C45
00000B4E
000009D8
000008DE
000007C9
00000A25
00000459
000006F6
0000087E
FFFFF52E
FFFFFEAF
FFFFF7F1
FFFFF868
FFFFF9B2
FFFFFFB7
FFFFFCDE
000003DB
00000115
FFFFFE5D
FFFFF971
FFFFF870
00000023
FFFFFA91
FFFFF67E
FFFFF8AB
0000078D
00000811
FFFFF961
FFFFF88D
00000322
00000824
FFFFFD5A
FFFFFE2C
FFFFF7D6
000000EB
0000024B
FFFFFA05
0000042B
00000192
FFFFF66A
0000010B
000005D4
FFFFEFD9
FFFFF7C0
00000370
FFFFF701
000008DE
00000096
FFFFFFFD
FFFFFF4A
FFFFFC7B
FFFFF99F
FFFFF068
FFFFF4EE
FFFFF193
00000452
FFFFFF5D
00000918
FFFFF485
FFFFF930
FFFFF304
000000A7
FFFFF03C
000003B4
000006EE
000002A9
FFFFF39F
FFFFFAF2
FFFFF242
00000461
FFFFFA5B
00000435
FFFFF7FF
FFFFFE69
FFFFFCDF
0000011D
000005BF
00000134
FFFFF56B
FFFFFB85
FFFFFEEA
FFFFF42A
00000941
FFFFFE43
000003D4
FFFFFF3D
FFFFF8A7
FFFFFFEC
0000036F
FFFFF9EB
FFFFFAF7
00000152
0000013B
000007FB
000006C9
FFFFF48E
00000638
00000B70
FFFFFF2B
FFFFFC4D
00000747
FFFFF876
000002DE
FFFFF702
FFFFFFB7
000001A1
FFFFF865
FFFFFF43
FFFFF7F7
FFFFF8C3
0000066A
FFFFF589
FFFFF889
00000ACE
0000072F
FFFFFA9E
000002E6
000005B0
00000A68
00000084
000003BB
0000006A
00000657
FFFFFFE6
000000D5
FFFFF96F
00000144
FFFFFEAD
FFFFFF62
FFFFFC8E
FFFFF91A
000006C7
FFFFF069
0000076B
00000FB5
FFFFFFD9
00000E7A
00000F60
FFFFFB87
000003F2
000012F0
000007BA
000008F6
FFFFFB9F
00000479
FFFFFC98
FFFFFC8B
FFFFFA7D
00000177
FFFFFE71
FFFFFFE6
0000094B
FFFFFE51
0000017A
FFFFFD9C
00000637
00000145
FFFFFC6E
FFFFFEF5
FFFFFA4C
FFFFF7AD
0000012E
000000DE
FFFFF609
FFFFFA99
FFFFFA33
000008CB
000008BB
0000091C
FFFFFB3F
0000034E
00000525
000009CB
FFFFF46D
000002DF
FFFFFACC
FFFFF79E
00000052
FFFFF6C2
FFFFF79E
000003C5
FFFFF5EB
0000019D
00000483
FFFFF686
FFFFF89E
FFFFFC0B
FFFFFDC6
000004B9
FFFFF848
FFFFFF7D
FFFFF8EA
FFFFFCEC
000003DF
00000598
FFFFFE7E
FFFFFF38
00000550
FFFFFE87
FFFFF682
FFFFF616
000008D6
FFFFF7D4
FFFFFF9E
FFFFF5BE
00000462
FFFFFC56
00000929
FFFFFA16
FFFFF92A
00000B3A
0000058B
FFFFF9D5
000006F8
FFFFFF38
000006F2
FFFFF749
FFFFFCAC
000001E6
FFFFFEF3
FFFFF84C
FFFFFE06
00000A36
FFFFF70D
FFFFF5A1
FFFFF76D
000001CD
000006F9
000006AB
0000001E
0000052C
00000466
FFFFFDFF
00000679
000005A5
00000B1D
00000034
00000260
FFFFFB83
FFFFF90C
000018E6
0000067A
FFFFFAA8
000002F1
000002CF
FFFFFA1D
00000239
FFFFEC37
FFFFF237
00000353
0000036F
FFFFFBBD
FFFFFD45
00000075
00000523
FFFFFE24
FFFFF6F3
00000155
0000070A
00000AEE
00000207
FFFFFDEA
00000333
00000EFB
00000753
FFFFFE29
00000ABA
000007B6
FFFFF607
0000015D
00000A2F
FFFFF922
FFFFF73C
000000C9
FFFFF7D9
FFFFFC71
FFFFFA94
00000257
FFFFFDC9
FFFFFF9E
FFFFFF6F
FFFFF46C
00000208
0000098A
000004FB
FFFFF9E1
FFFFF9B7
00000815
000004AC
000004C8
000007E6
00000214
0000063D
0000005B
FFFFF58C
FFFFF873
0000013F
FFFFF9A9
FFFFF9C3
00000798
00000844
FFFFF751
0000059E
FFFFF426
FFFFFEA0
FFFFFD73
FFFFFA4F
00000540
0000056B
FFFFFB3A
FFFFFBF2
FFFFF958
FFFFF903
000005CB
FFFFF715
000004C9
FFFFFF9B
000000E4
000006E4
00000468
FFFFF7E2
000007C9
FFFFF44D
000007D2
FFFFF78B
00000326
FFFFF9C7
FFFFF871
FFFFF9D1
00000A2E
00000DE2
00000219
00000DF0
00000657
FFFFFF3F
00000524
FFFFFD0E
FFFFFB69
00000772
0000090D
00000602
FFFFFC5E
FFFFFCF8
FFFFF918
FFFFF388
00000981
0000000C
000000D9
FFFFF913
FFFFFC92
FFFFF5B3
000001F6
FFFFF92E
FFFFF941
FFFFFD78
FFFFF75B
FFFFF818
FFFFFB8F
0000067E
FFFFFCB2
FFFFFBBC
FFFFFF7A
FFFFF998
FFFFFE8D
FFFFFA4B
FFFFFF9C
00000465
FFFFF6E9
FFFFF201
00000849
FFFFF525
FFFFFBED
FFFFF875
FFFFF41B
FFFFF81F
FFFFFB04
FFFFFBC2
000004EF
00000D3A
00000536
00000A9D
00000405
00000327
00000856
000002BC
0000027E
FFFFFD8F
0000064A
000008A1
000003D1
0000060F
FFFFF822
00000701
00001F9C
000017EA
0000050F
00001C8F
00000391
FFFFED6A
00000B7A
000006C7
FFFFF4A7
FFFFFE23
000005A1
000007E0
FFFFFCA3
00000A13
00000872
FFFFFA07
00000140
00000060
00000427
00000761
000002BA
00000799
00000ADA
000001FB
000004DF
FFFFF908
000001B7
000006D3
00000BF7
0000098E
00000B89
00000293
FFFFF901
FFFFFA10
00000429
FFFFF74A
FFFFFD56
000005A0
FFFFF850
00000915
FFFFFE99
00000630
0000068F
000007CA
0000037C
FFFFFD31
0000025B
FFFFFBF7
FFFFF21A
FFFFFF36
FFFFFB77
FFFFF2AC
FFFFFA83
FFFFFADB
FFFFFAD9
FFFFF7D4
FFFFFD11
00000755
FFFFF49E
FFFFFFEB
00000635
000007AC
000008E0
FFFFF847
FFFFFDCE
000003DF
FFFFFCF0
000007ED
00000353
000004E2
FFFFF708
00000C28
FFFFFED3
FFFFF826
FFFFF5AA
FFFFFBB6
FFFFF978
0000089B
FFFFF9C7
FFFFF89F
000000E6
000007EF
FFFFFFEB
FFFFFBCA
FFFFF807
00000AAC
FFFFF99A
00000202
FFFFFD8C
FFFFFD8C
00000796
FFFFF7DF
FFFFFABA
FFFFF86E
FFFFFD80
00000686
0000004B
FFFFFDC4
FFFFFB8F
FFFFF6F1
FFFFF7A6
FFFFFEF3
00000B3F
000007E3
FFFFF490
FFFFFE36
000004C7
000002CB
FFFFF564
000001E8
FFFFFD77
FFFFF6AF
00000577
FFFFFC84
0000029D
FFFFFECB
000008E6
0000103D
FFFFF57C
000009D5
00000829
000000CC
FFFFFF50
00000C43
000009BB
000002B6
FFFFF8A1
00000BB5
0000097A
FFFFF82F
FFFFFED0
FFFFFB9A
FFFFFF3A
FFFFF8FB
FFFFF736
FFFFFD83
0000027F
FFFFF5DE
FFFFFBC6
0000012D
000000EC
FFFFFA42
000007CD
FFFFFCAE
FFFFF241
FFFFFE05
FFFFFE7E
FFFFFA25
00000263
00000B7B
FFFFF65A
00000316
FFFFFEEE
00000562
FFFFF3D4
00000931
00000358
FFFFF5E3
00000358
00000A14
00000455
00000803
FFFFF79D
000008A2
000002A0
FFFFFD28
0000018D
0000073B
FFFFFA3A
FFFFF99D
00000766
00000CF3
000004D2
00000963
FFFFFCF5
000003FF
FFFFF394
0000093D
000002D5
FFFFF700
000006CF
FFFFFA49
FFFFFE2B
FFFFFF8E
FFFFF973
0000014E
FFFFFA90
000009E5
FFFFF897
FFFFF8AC
FFFFFFA5
FFFFF726
FFFFFFE3
FFFFF7D0
FFFFFB2D
000003DC
FFFFFBB4
FFFFF954
0000059D
000007B8
00000645
FFFFFDF7
FFFFFC5C
FFFFFA0F
0000019D
00000376
0000020C
FFFFFAD4
00000089
FFFFFE3B
FFFFF501
FFFFF835
0000041E
00000053
000001D7
000006FF
FFFFF69E
00000931
FFFFF622
000001A1
000003FD
FFFFF73D
FFFFF93C
000001F3
000004F7
00000169
FFFFFE4A
FFFFE88A
FFFFF5FE
FFFFFED3
FFFFF47B
FFFFF397
0000070D
FFFFF744
00000DE4
000002B8
00000F8F
FFFFF7E7
00000DC0
0000045B
FFFFF9E3
00000B89
00000326
FFFFFC54
00000565
FFFFFB61
FFFFFC33
000006C2
FFFFF781
FFFFF5DD
0000154B
00000551
00000241
00000A5F
000007AA
FFFFF91E
0000039E
FFFFFACF
000007B1
000000F0
00000601
FFFFF9CD
000004D9
00000541
FFFFF811
FFFFFC1E
FFFFF76C
00000262
FFFFF68D
0000061F
00000325
00000289
FFFFFCD2
FFFFF213
FFFFF6EB
FFFFF6AE
000002B4
00000839
FFFFFAFD
FFFFF7DC
FFFFFED7
00000294
00000940
00000059
00000B02
FFFFF77F
FFFFF7C9
FFFFF854
00000C74
00000441
0000044A
FFFFF8DA
FFFFF6FE
FFFFF48E
000000CB
0000027E
000004DA
FFFFEF60
FFFFF972
0000047C
FFFFFC0E
0000039A
FFFFFADD
0000003C
00000222
FFFFFADC
00000225
FFFFFE2A
FFFFFA60
00000245
FFFFFA8B
00000246
FFFFFBF7
00000859
0000020E
00000F7B
FFFFFE57
FFFFDCD9
00000477
FFFFEEFC
FFFFF074
FFFFF81D
000008B0
0000020E
0000011A
00000659
00000037
FFFFFA69
FFFFF9D4
FFFFF437
0000070E
00000312
00000769
FFFFFC5E
FFFFF3D2
000000B5
00000501
00000984
0000065B
FFFFFAC1
FFFFFFDA
00000428
000000BF
0000004E
00000425
000003CD
000006BE
00000689
FFFFF412
000002E1
FFFFFFD2
FFFFF4F9
000000AE
FFFFFCF0
00000609
FFFFFBFC
00000494
FFFFFAB2
0000090C
FFFFFD5B
000003F2
FFFFF82C
000000A7
00000B60
0000026C
FFFFFB58
FFFFFEB6
FFFFFE9E
00000333
FFFFFFAB
0000072F
FFFFF630
0000014D
00000690
FFFFFF6F
00000374
FFFFFF84
FFFFFBDB
00000264
FFFFFE01
FFFFFF8F
0000043D
0000005A
FFFFF881
FFFFF987
0000037C
FFFFFFD5
FFFFFE19
FFFFFDF2
FFFFF9E0
FFFFFAD9
FFFFFE44
FFFFF52A
FFFFF40A
000001E1
FFFFFA75
FFFFF72C
FFFFFE15
00000432
FFFFFF7F
FFFFF789
000007BE
FFFFF7A8
0000079A
000006D9
FFFFF77C
FFFFF4D4
FFFFFEF2
FFFFFAD5
0000034C
00000047
000000A9
00000795
00000085
FFFFFFC8
000009D2
000004CC
FFFFFC79
FFFFF936
FFFFFFBA
FFFFF75B
FFFFF760
FFFFF4D3
00000287
00001441
00001F52
00000798
00000662
00001422
00000CC7
FFFFFF18
000000BA
000006B7
00000A53
FFFFF0B8
FFFFF790
0000060F
FFFFF471
FFFFFE25
00000161
00000596
000005D7
FFFFFFE7
000003A1
000002FB
00000431
FFFFFB3B
00000720
FFFFFE91
FFFFFFA8
000003BF
FFFFFDD4
00001192
00000B0A
00000AB6
00000E9F
00000AB6
000004B5
FFFFFD83
FFFFFBE0
FFFFFBA6
FFFFFE7C
0000076C
FFFFFAAD
000008D0
FFFFFB3C
00000514
00000972
FFFFF615
FFFFF911
FFFFF781
FFFFFEA5
00000574
FFFFFEE6
0000087D
FFFFFC45
FFFFF6D1
00000473
FFFFF452
FFFFFE61
00000351
FFFFFB3C
FFFFFAC4
000007E2
FFFFFE79
FFFFFAC0
FFFFFC7F
00000575
000009AC
FFFFF773
FFFFF908
FFFFF65E
FFFFF665
00000611
00000A76
0000153E
000008C1
FFFFFBE3
0000113E
FFFFFD39
00000899
000004C0
000005B8
FFFFFEEF
00000491
FFFFF5EB
0000033B
FFFFFE15
FFFFF2F2
0000018A
000006A6
000004DE
FFFFFA38
0000104E
00000C92
00000905
00001A5C
00000529
000009AA
00001E5F
000011F6
0000055A
000001D0
00000A36
FFFFF630
00000945
00000506
00000797
FFFFF601
00000A44
FFFFFC73
FFFFF86E
000003DB
000005FF
FFFFFD08
FFFFF94E
000005CC
000006D0
FFFFFF4F
FFFFF472
000004B0
FFFFF4A1
FFFFFF87
000008F7
FFFFF8CC
FFFFFAFB
FFFFFEC6
FFFFF6D0
FFFFFB2B
00000FC5
0000058D
000007A7
00000C53
00000BFE
00000420
000002F7
0000020E
000005A0
FFFFF506
FFFFF4FC
FFFFFE45
FFFFF94E
000000ED
0000065A
FFFFF782
000000EB
FFFFF1DB
0000059F
000009C3
0000113C
FFFFF22D
00000D7A
0000075C
FFFFFCB8
00000890
00000775
FFFFF081
FFFFFEB5
FFFFF950
000010E9
000016F7
00000CAA
FFFFFF93
FFFFFF0F
FFFFF57A
FFFFFF5D
FFFFFFAF
00000761
FFFFF83C
00000404
FFFFF458
000002B4
000001D9
000009D5
000007DB
FFFFFB10
FFFFF9D2
FFFFFDEC
000001C5
FFFFFCAA
FFFFF549
00000083
FFFFF9EB
0000001A
00000739
FFFFF869
00000917
000001DC
FFFFF771
00001119
000007EC
FFFFF849
FFFFFD9F
00000693
FFFFFEF1
FFFFFF26
0000087A
00000660
FFFFF6FC
FFFFFF0B
FFFFF97E
00000C16
000003C9
00000949
00000140
00000213
FFFFF951
00001068
0000032A
FFFFFC16
FFFFF5EF
FFFFF3BB
FFFFFF79
FFFFF76A
FFFFF736
FFFFF77B
FFFFF85E
00000304
00000191
0000107F
00000701
FFFFF859
FFFFFFC5
FFFFFED4
FFFFFF04
FFFFF33D
FFFFFD21
0000007F
FFFFFEF3
000001F8
00000AAA
00000389
FFFFF7F0
FFFFFF4F
FFFFF795
00000552
FFFFF584
FFFFFF1F
FFFFFBAE
FFFFF7C6
FFFFF502
FFFFFC81
0000001B
FFFFFB5A
00000532
000004FB
00000679
FFFFFF36
FFFFF74C
FFFFF9E4
00000BB8
FFFFF80B
0000064F
00000858
FFFFF536
FFFFF19B
000008CD
FFFFFE14
FFFFF053
00000318
FFFFFD12
00000075
FFFFF3F8
00000228
FFFFF71F
FFFFFAA6
FFFFFA63
0000028B
00000982
FFFFFF36
00000286
00000903
FFFFF6E3
FFFFEB4D
FFFFF561
FFFFFB9C
FFFFF7C9
000004D7
FFFFFD81
FFFFFB59
FFFFEF74
00000B25
00000104
00000559
00000144
000008EA
FFFFF3F5
00000506
FFFFFBC4
FFFFF952
000004E5
00000247
00000629
00000A18
FFFFF523
00000455
FFFFF9B0
0000025D
000006A1
FFFFFDD7
000004EA
FFFFFE97
FFFFF226
000001FC
FFFFFE01
FFFFEACE
FFFFF8CA
FFFFF71E
FFFFF844
00000721
FFFFF45F
FFFFFF7B
FFFFF716
FFFFF5A2
000001C4
FFFFFF2C
000000B0
FFFFF7FD
00000789
00000422
00000571
0000033B
FFFFF7BF
FFFFF1C1
FFFFFBCE
00000807
00000493
00000EA3
FFFFFAEE
FFFFF723
00000C89
0000052D
000002AC
0000082B
FFFFFA3A
FFFFF936
FFFFF243
FFFFF54A
FFFFF6AA
FFFFF871
000005FA
FFFFFF2C
00000BFF
00000639
0000060A
FFFFF9AD
FFFFF77C
000008C6
FFFFF643
FFFFF62C
000007B9
0000092D
FFFFFA15
FFFFFE11
FFFFF8A0
000003FB
00000971
FFFFF612
FFFFF77F
0000024D
FFFFFD2B
FFFFF887
000004DB
FFFFFC2F
00000977
000003B8
FFFFFB6E
FFFFFCAB
00000158
FFFFFFBC
FFFFFF08
FFFFFEDA
FFFFF880
0000097F
000004B5
000006D8
00000AC9
FFFFF618
FFFFFCDE
00000406
FFFFFF75
00000A10
FFFFFC33
000001FE
000004CA
00000499
000000D7
00000A06
0000050D
00000937
000000EB
FFFFFBD1
000001B2
FFFFF6F3
FFFFF8B1
FFFFF2F0
0000070A
00000058
00000590
FFFFF940
FFFFFBFE
FFFFFAC9
000006A9
000001ED
FFFFF6C4
0000004E
FFFFFF06
000006A4
FFFFFB62
000009A7
0000022D
00000141
00000170
00000319
FFFFFADA
00000355
0000076C
00000978
FFFFF6FF
FFFFF560
FFFFF97C
00000155
00000889
FFFFFAA1
00000A33
00000175
FFFFF4DB
000000F9
FFFFF88D
0000073A
00000695
000005E8
FFFFF479
0000081B
00000208
FFFFF55F
00000832
000002C3
00000858
FFFFF9F9
000001EE
FFFFFCFA
000000E6
00000851
FFFFFD2D
0000012E
00000746
00000661
00000293
FFFFF96C
0000008C
FFFFF8B6
FFFFFF5E
000005D5
FFFFFC38
00000915
00000602
0000031C
000009E7
00000949
00000914
FFFFFA1B
FFFFFF0F
FFFFFFDA
FFFFFF55
00000496
FFFFFB51
FFFFF96B
FFFFF791
000002C5
FFFFF50E
00000A13
FFFFF858
0000000F
FFFFFFCB
000008AF
000002D9
00000B0D
00000833
00000DCC
FFFFFA15
00000981
000002A8
FFFFF5FC
FFFFF86A
FFFFFA05
FFFFFA34
000001F3
00000339
00000847
00000644
0000073A
FFFFFB77
FFFFF963
00000246
FFFFFC9D
FFFFF818
FFFFF70B
000008DE
00000B9A
0000017D
00000BA7
00000331
FFFFF69D
000000AA
FFFFF994
00000120
00000539
00000307
FFFFF6EE
0000097F
0000064D
00000B25
000001D6
00000853
00000388
FFFFFAEE
FFFFFE9F
00000330
0000082F
FFFFF95D
00000932
FFFFFE9B
FFFFFF21
FFFFF57B
FFFFFAAA
FFFFF6A3
FFFFF72D
00000B5A
000004B7
FFFFF732
00000638
FFFFFCAA
FFFFF6E5
FFFFF647
FFFFFC54
000008A5
000007B0
0000095E
000003E6
FFFFF8B8
000003C6
00000194
00000A77
FFFFFC05
FFFFFC0F
FFFFF894
000007BC
FFFFFC88
FFFFF4DB
000002D4
0000062D
FFFFFFFC
FFFFFC5D
FFFFFB9E
00000643
00000516
FFFFFCC9
00000785
00000108
000009EA
0000072B
FFFFFA3F
00000460
00000171
000009D5
FFFFFDCB
000005FB
FFFFF69D
000001A8
FFFFFEEF
FFFFFE40
00000197
000008E1
FFFFFDAC
0000052F
00000511
FFFFF7F9
00000978
000009B5
000004A6
00000615
FFFFFCC9
FFFFFC17
FFFFFEB4
FFFFF939
FFFFFEAD
000005B0
0000062E
00000011
FFFFFD26
000001E2
000008F5
FFFFFA3C
00000CF2
00000BF0
FFFFF98F
0000038E
00000155
000000A1
FFFFFBD9
FFFFFF3D
00000ABC
FFFFFAE1
00000052
0000034C
FFFFF80A
FFFFFEF7
00000A74
FFFFFD5D
000001E3
FFFFFBB2
000007D1
FFFFF75A
000001A8
00000114
000004DE
00000098
0000082E
FFFFFE55
000005FE
FFFFF65A
FFFFFCDC
FFFFFD42
FFFFF79B
00000431
FFFFFC6E
000000FB
FFFFFE93
FFFFFEFB
FFFFF739
00000714
000005F6
FFFFFEDE
000000D7
00000AEF
00000644
FFFFFE94
FFFFFCA8
FFFFFF33
FFFFF4A8
000005FE
FFFFFAE2
FFFFF937
FFFFFB8A
FFFFFF0E
FFFFFD20
00000354
FFFFFBBF
00000411
000001A6
FFFFF5CB
00000193
00000046
FFFFFFB3
00000865
00000207
00000A0A
00000021
00000017
000002DE
FFFFFD5B
FFFFF9BF
0000000A
0000044E
00000792
FFFFF68D
FFFFFBDC
FFFFFF55
FFFFFE38
000003D0
00000277
FFFFFA1F
FFFFFC6C
00000563
FFFFF367
00000761
FFFFF551
FFFFFBF3
FFFFF79E
000002D2
FFFFFCEE
0000092C
FFFFF9D2
00000140
00000163
FFFFF551
FFFFF88F
FFFFFF63
00000018
00000475
0000094C
FFFFF6AF
000000E7
FFFFF5A8
00000345
0000093D
000005AA
000000B6
FFFFF7D8
00000221
FFFFFFAF
0000042A
0000076E
00000297
FFFFFEA9
00000739
00000811
0000096E
00000A73
00000362
000005BE
00000994
FFFFF98F
0000018D
000006CE
FFFFFCBA
FFFFFECC
00000744
00000B43
000002FD
000008AB
00000D7D
00000082
00000A1F
FFFFFEC8
FFFFFE92
FFFFFBF0
FFFFFB64
000000A0
FFFFFB53
00000CC4
FFFFEC8A
FFFFFDB4
FFFFEE82
FFFFF8D4
00000A5C
FFFFF99E
000008E2
FFFFFE6E
000009AE
FFFFFAFC
0000064F
FFFFFF31
FFFFF758
FFFFFD6C
FFFFFEC7
000001B3
FFFFFA30
FFFFF713
FFFFF863
FFFFF508
FFFFFD26
0000014D
00000677
000006EE
FFFFFC77
000001B5
FFFFFEFB
FFFFF8D0
00000409
00000ABB
0000023A
00000985
00000238
0000083D
0000090F
FFFFF89B
FFFFFA07
0000048F
000009FC
FFFFF930
00000B1F
000008F0
FFFFF933
000004CF
FFFFFF8F
FFFFF974
FFFFF909
FFFFF848
FFFFF83A
FFFFFD52
FFFFF988
000009B6
00000030
00000513
FFFFF539
FFFFF8DE
00000140
FFFFFDC1
FFFFF685
FFFFF92D
00000724
000000BD
FFFFF5A0
FFFFFD04
0000051F
FFFFF974
0000071C
00000779
00000869
FFFFFC6F
FFFFFFD2
0000029A
00000102
FFFFF98C
FFFFFB6D
000008B7
000009E1
000005E3
0000051E
000000EF
FFFFFE59
FFFFF576
FFFFFD7F
FFFFF5E5
FFFFF751
000007BA
FFFFFD5E
00000752
00000D91
000008EB
00000124
FFFFF649
0000045D
00000760
FFFFFD7F
FFFFF6FC
FFFFFDF2
FFFFFBE1
0000000C
FFFFFEE0
00000A5E
FFFFFF99
00000C3A
FFFFFA08
FFFFFE7B
FFFFF8B6
000005C9
FFFFF670
FFFFFB19
FFFFF747
0000054E
FFFFFD66
000000ED
FFFFFD9B
000003C3
FFFFF86E
FFFFFB31
FFFFF7A7
0000049F
00000BDC
00001223
00000352
00000817
000016A1
00000C1F
00000E66
FFFFFF6C
000004E0
FFFFF8C4
00000A5E
000004A5
00000749
FFFFFB6F
000005D2
00000010
000007C5
FFFFF8E1
00000906
0000081D
FFFFF778
00000438
FFFFFEBC
FFFFFF99
0000081F
FFFFFDB8
FFFFFD1D
FFFFF7F8
0000033F
000002DA
FFFFF992
0000013C
FFFFFDC8
000001BE
000007F7
00000215
00000166
000005FF
00000112
FFFFFA7B
FFFFF7F0
FFFFF535
0000089B
00000509
0000009E
0000013C
000004BF
000001FA
000000D1
FFFFFF76
FFFFFD02
00000542
FFFFF693
FFFFF91F
FFFFFFF8
00000C83
FFFFFBE7
00000429
00000371
000007FA
FFFFFD30
FFFFF3E1
00000792
000004F4
00000919
00000760
FFFFFA40
0000083A
FFFFF9D0
00000413
FFFFFADC
FFFFFA01
000004E9
000004DA
FFFFF470
FFFFFB29
0000034C
FFFFF986
00000693
000006B9
00000509
FFFFF89F
000006A3
FFFFF6BD
FFFFFF76
000006B6
FFFFF97A
FFFFF8E7
FFFFFA9B
0000077E
FFFFF693
000003B8
000000F4
FFFFFC1D
00000601
000004FE
FFFFFA07
FFFFF93A
FFFFFA09
FFFFFAC9
0000011E
FFFFFEBF
00000591
00000322
FFFFF900
00000E33
00000602
FFFFFF43
00000951
000003FF
FFFFF1AD
FFFFF784
FFFFFD1C
FFFFE87E
FFFFE886
00000D9F
FFFFEBF5
FFFFFE9E
00001234
FFFFF645
FFFFFFF7
00000A85
FFFFFB21
FFFFF9CD
000008BD
FFFFE6A9
FFFFDFF3
00000C5F
FFFFF4E8
FFFFE842
00001643
FFFFF74A
00000358
00000352
FFFFF50C
00000711
FFFFFDCA
FFFFF406
FFFFFF7B
FFFFF7B6
0000039E
FFFFF8CA
0000009F
000000B2
FFFFFD05
00000AAF
0000009F
00000624
000004A8
FFFFF834
FFFFFC8C
00000398
000001BA
00000651
00000BC9
FFFFF98D
FFFFF652
FFFFFCED
00000884
FFFFF9B7
00000600
00000319
FFFFFD30
00000169
0000098B
000001EE
00000575
00000869
FFFFFB05
0000004A
0000040A
00000FAA
FFFFFD1B
00000218
0000005E
000001B4
FFFFF7CA
0000046E
00000CDD
00000247
FFFFF822
FFFFFE41
00000171
FFFFF1D7
FFFFFB61
000003B6
00000465
FFFFFF02
FFFFFE03
000004F9
0000060D
00000A5F
0000045C
FFFFF66E
FFFFF60B
FFFFFF78
00000B5A
00002299
00000BD6
00001A45
00000E6B
00000D7E
00000386
00001032
0000038F
FFFFF89E
000004AB
00000D06
00000358
FFFFFAAA
000002F6
000001BA
FFFFF8B6
000006DA
00000769
FFFFFBA7
00000447
FFFFF38A
00000597
FFFFFE4A
FFFFFDB2
00000420
FFFFFE90
00001727
00000FFB
000003AE
00000970
000003D0
FFFFFC37
000008D4
000008D4
FFFFFF17
FFFFFA7D
FFFFFD5C
FFFFFE2C
00000BD6
00000158
00000813
00000819
00000156
000001EF
FFFFFA34
FFFFFDBA
FFFFFB3F
FFFFFB3B
FFFFFA0A
FFFFF960
FFFFFACF
0000006E
000009E6
FFFFF2ED
FFFFFBE5
FFFFF44D
FFFFFF9F
000005A3
FFFFF576
FFFFFF29
00000522
FFFFFF6A
000000E4
0000000C
0000023F
000003FB
00000104
000004B1
0000033E
000005A4
00000900
00000666
FFFFFB22
000007F9
000005E4
FFFFF8A5
00000392
FFFFFB7D
000003D2
00000690
FFFFF5FD
0000094F
FFFFFF81
000006E6
0000099B
FFFFFBA8
FFFFFE3B
FFFFFE5A
00000566
FFFFFBEB
FFFFF841
00000134
00000007
FFFFF5CB
FFFFFF6A
FFFFFB0F
000003F9
0000034E
00000A81
00000A1E
00000765
FFFFFE35
FFFFF6C3
000006CC
0000060C
00000498
FFFFF679
FFFFF60A
FFFFFAB4
FFFFF93A
FFFFFBED
FFFFFA4F
FFFFF2BE
0000026A
000000D4
FFFFF091
000002CA
000006A9
000005B4
00000930
FFFFF7AB
FFFFFFBA
000006A3
00000844
000005F2
000004E1
000005B6
FFFFFEB8
00000609
00000E07
0000074E
FFFFFF1A
000001F7
00000104
000001D6
FFFFF4E8
000001F0
000005B1
00000523
000006D9
FFFFFBD9
FFFFFD71
00000465
FFFFFA02
0000093F
FFFFFD53
00000819
FFFFF503
00000264
00000124
0000058B
FFFFF9BE
FFFFF2D3
00000A1A
00000716
FFFFFD19
00000580
00000B48
000005C2
000001AB
FFFFFA35
000002B3
00000465
00000836
FFFFF2B8
FFFFF7B8
00000A9F
FFFFF39F
00000784
000004ED
FFFFFB3F
00000C21
000008DA
FFFFFEF1
FFFFFD1F
000000F7
FFFFFF5E
000010FA
00000BFD
FFFFFF3D
00000A03
FFFFFF73
FFFFF518
FFFFF6EF
FFFFFD18
FFFFFC67
00000161
00000492
FFFFFF65
FFFFF7BC
000005FB
0000024A
000001D9
FFFFFE9F
00000178
000001E6
000004F5
FFFFE10D
FFFFFF6D
FFFFF8FF
FFFFEFF9
000008A7
000002CC
FFFFF977
000008A2
00000641
000001CB
FFFFFC9F
000004AB
00000643
000004D9
FFFFF43B
00000F17
000009C9
FFFFF8B3
FFFFF8F4
FFFFFB43
FFFFFCFC
00000535
00000930
FFFFFD31
FFFFF434
FFFFF770
FFFFF76A
00000B78
00000727
FFFFFB45
FFFFF7F0
FFFFF98F
FFFFFE89
000001DA
FFFFF8DD
FFFFF450
000004CD
FFFFF825
FFFFF5E3
FFFFFC0C
00000312
0000009E
000003C1
00000018
FFFFFC08
0000029C
00000BE4
00000729
00000664
00000081
FFFFFAA5
FFFFFBF4
FFFFF4A0
FFFFEDA4
00000203
FFFFFC40
FFFFFC03
00000315
00000812
FFFFF3EE
000016D0
000012E9
FFFFFDC9
FFFFF5C6
FFFFF73D
FFFFE975
FFFFECD0
FFFFE833
FFFFEB86
FFFFE187
FFFFF11E
FFFFD242
0000026B
00000898
FFFFFB59
000006CD
FFFFFC29
FFFFFC60
000002E4
00000235
FFFFF9E7
FFFFF384
000004EF
FFFFFD70
FFFFFB67
000002BE
000003EA
FFFFFE04
000001A0
000008DB
FFFFF065
0000083C
00000938
00000049
00000530
00000C88
00000263
0000074F
000015A0
FFFFFAC9
00000430
FFFFFC0A
FFFFFCBD
00000301
FFFFF788
0000035E
0000046A
FFFFFDEE
000001C0
FFFFF903
FFFFF4D7
00000536
FFFFFE78
FFFFFE9C
000000CF
00000E8E
00000B69
FFFFEECF
00000352
000004DA
FFFFF53F
FFFFFF35
00000D70
FFFFEB83
FFFFF4DC
000002F1
FFFFFEBE
00000EA5
000005A4
FFFFFFA2
0000040E
000005E4
FFFFFAD8
00000B01
00000411
000002B1
00000366
00000284
00000690
FFFFFF54
00000049
0000081D
FFFFF211
000005D0
000005B1
000004E4
000003EE
00000A2F
FFFFF6F9
FFFFFBF3
FFFFFE6F
FFFFF42E
FFFFF2C2
00000344
FFFFF41E
FFFFF5F8
00000180
FFFFF7BC
00000469
00000C9C
0000080D
0000033F
0000033A
FFFFF6B5
FFFFEE14
0000000B
000008A0
FFFFEE1C
000001D3
00000AB7
FFFFFEBA
FFFFF182
FFFFF24A
00000441
FFFFF94E
000004FB
FFFFFAE7
FFFFF2B0
0000089C
000007B9
FFFFF7EF
FFFFF913
FFFFF6B0
FFFFF16A
000001CE
FFFFF412
FFFFEB37
FFFFE8FD
FFFFEA49
000008CE
000003CB
000008A5
000011DB
00000C46
FFFFFCE3
00000745
FFFFFCBC
FFFFF8AE
00000905
000000FC
FFFFF73C
00000A8D
000003FE
FFFFF398
00000513
FFFFF7E8
FFFFF8E6
0000024E
0000028E
000003BB
FFFFFEAF
00000BCB
00000455
000033EC
000019A9
00002227
FFFFF80E
FFFFFDB5
00000125
FFFFF418
000006DE
FFFFFDFF
FFFFFF52
000008D4
FFFFFFB9
FFFFFDE8
FFFFFD62
00000AE6
00000338
FFFFF6CC
00000417
000003D9
FFFFF53B
FFFFFD47
FFFFF4E7
FFFFF988
FFFFFE4D
FFFFF28F
FFFFFC84
00000032
FFFFFABB
FFFFED7C
0000073C
FFFFFDAB
00000231
00000175
0000070E
FFFFFEB7
000000A1
00000A7B
000008CF
00000954
000001FF
FFFFF555
FFFFF974
FFFFF9D7
000003F9
00000045
00000341
00000470
00000AD0
0000023B
FFFFF804
FFFFF96B
FFFFFFE1
FFFFFE7F
FFFFFAC4
00000617
FFFFFE9A
FFFFF929
FFFFF9C6
00000376
00000856
00000A10
00000093
FFFFFA76
00000658
FFFFF7C7
000002D0
000001E3
000008F1
000000E9
FFFFF994
0000068D
00000724
00000B30
FFFFFD2C
FFFFFA8D
00000E1F
000007A9
00000657
00000A37
000001CD
00000B9C
00000263
FFFFF7C5
000002D6
000000AC
00000060
FFFFF30C
FFFFF983
FFFFF8DB
FFFFFEBF
FFFFF510
00000618
00000889
FFFFF598
00000607
000007A2
000006ED
00000999
000004F2
0000006C
00000849
00000A5C
FFFFF9C5
00000338
000000A0
FFFFFA71
000006C0
00000024
FFFFFAB7
00000351
FFFFFBF0
FFFFFA83
FFFFF603
000000D1
FFFFFCFE
0000060C
FFFFF7A0
FFFFF9FC
00000883
00000413
FFFFF79B
FFFFFE37
00000840
00000068
0000096D
FFFFF79E
FFFFFBE5
000002F5
0000085F
000007CC
000001F6
00000589
FFFFFF82
FFFFFF5A
00000AC1
FFFFFE20
FFFFF82B
000000EB
0000093E
FFFFF795
00000A12
00000016
FFFFF482
FFFFFA20
FFFFF88F
FFFFF599
FFFFF711
FFFFFA07
000003A1
00000413
FFFFF755
0000047F
FFFFF950
FFFFFF57
FFFFFE78
00000500
FFFFF97F
00000489
FFFFF9B9
FFFFF7B6
000008B9
0000018E
FFFFF8AA
FFFFF6DD
FFFFFC47
FFFFFEC6
FFFFFA4F
00000800
FFFFFD71
FFFFF99B
0000061F
00000697
FFFFFC5F
FFFFFA55
000006FA
000000D2
00000290
0000030A
00000365
00000388
000009FD
00000A16
00000293
FFFFFD0C
FFFFF84C
FFFFF631
000004B7
00000164
00000255
00000AAF
FFFFFA8A
FFFFF588
FFFFF9A9
000004D3
0000029A
FFFFFB58
00000947
00000925
FFFFFD3A
FFFFF87E
000004B2
FFFFFC9A
000004BA
FFFFFD4E
0000048C
FFFFF7AB
00000046
FFFFF75E
FFFFF87D
FFFFFB2A
0000069A
0000004A
FFFFF8FA
00000B36
FFFFFB22
00000563
00000216
000003D5
00000312
000006FA
FFFFFCFF
FFFFF955
00000501
FFFFFB67
000002DE
FFFFF753
00000B8D
FFFFFB51
FFFFF8F7
FFFFFB30
00000665
000007D6
00000147
000001CF
00000561
FFFFFE99
FFFFFBC9
00000397
000007AA
000001B1
FFFFF98C
00000082
FFFFF7AE
000006FB
FFFFF9DD
FFFFF5F7
0000009B
FFFFF6CF
000000A5
00000AAF
FFFFF8B3
FFFFFD4C
FFFFF92B
00000158
FFFFFB4E
00000036
00000B63
FFFFFF9A
FFFFF772
FFFFF7AF
FFFFF75D
FFFFF9A0
0000083C
00000A99
00000028
FFFFFA3B
FFFFFEAE
FFFFFADC
FFFFF679
000008C8
00000284
00000A0A
FFFFFD68
FFFFFB88
000008C1
00000408
000012D6
0000132E
0000008E
000009FE
0000109C
00000D1C
000002B1
00000705
00000812
000009FD
FFFFFF92
00000281
FFFFFB02
0000005B
00000010
FFFFFBFD
00000143
00000DBF
000003E5
FFFFF6FF
00000937
FFFFFCFE
FFFFF5A7
0000099F
FFFFFC61
000000FF
FFFFF9A3
000006F1
000003BC
FFFFFCC0
FFFFF9F5
000004C4
00000A4F
FFFFF9E5
FFFFF76C
FFFFF5AA
FFFFFA0E
00000901
FFFFFA1F
FFFFFEA8
FFFFF8F3
000002F8
FFFFFD05
FFFFF726
000005EF
FFFFF4B0
FFFFFCD1
00000000
000007DF
FFFFF92A
0000027F
0000056E
00000097
FFFFF9C0
FFFFFBC3
00000999
FFFFFB66
FFFFF8D8
000000FA
FFFFFC1C
00000484
000006CE
00000935
0000003B
00000392
000006C6
000003EF
000001E8
00000570
0000009A
FFFFFE04
FFFFF56D
FFFFF83A
000001A8
00000168
FFFFFDB4
FFFFF5EA
FFFFF5B3
00000108
FFFFFDCB
FFFFFC9A
000006B6
00000718
000009C3
FFFFFA3F
000000AC
FFFFF80C
FFFFF9AC
FFFFFC1C
FFFFFDAA
00000A98
000003F0
FFFFF7E8
FFFFFE50
FFFFF826
FFFFF887
FFFFFBFB
0000081B
FFFFF6D0
FFFFF928
FFFFFDD0
00000577
00000779
FFFFFD9E
000001F6
FFFFFF73
FFFFFCE0
FFFFF617
000006F2
00000733
00000A53
FFFFFD6D
000004F3
000005A9
FFFFF724
FFFFF81A
0000012F
FFFFFF27
00000835
00000004
FFFFFDDE
FFFFF928
00000627
FFFFFB01
0000092A
FFFFF9AC
0000080D
0000084D
000005E7
000002FC
00000A9C
00000426
000001BD
FFFFFC95
000005B4
FFFFFFE1
FFFFF9B9
FFFFFE82
000006F7
0000018D
FFFFFB5C
00000BAA
00000845
0000066F
FFFFFFC3
0000023E
00000C59
000008EE
FFFFFD9B
FFFFF98C
000004C9
0000018C
000004AD
00000550
00000D35
00000722
FFFFF8F6
0000005B
000007CF
FFFFF77E
FFFFFF4E
0000089B
FFFFFA80
0000073C
00000455
FFFFF57B
FFFFF619
FFFFF689
00000084
00000A9C
000007C6
0000023E
0000068D
FFFFFE93
FFFFF8E7
000004D7
FFFFFFB8
FFFFF5BF
000008AA
FFFFFE91
000005DE
FFFFFCFF
FFFFF795
FFFFFA8D
00000ABA
0000001A
000007CA
00000DE9
FFFFFE56
FFFFFC53
FFFFFBE7
0000014A
00000A8F
FFFFFC2E
00000661
00000AA1
FFFFF6FE
FFFFFEF1
000006F0
0000067F
FFFFF6D8
00000562
00000944
FFFFF8FE
FFFFF78F
FFFFFE53
FFFFF95F
FFFFF6AB
FFFFF6D6
FFFFF445
00000258
FFFFFF21
FFFFFCA3
00000333
FFFFFFA8
0000050D
FFFFF839
FFFFF910
000007B4
FFFFFED9
FFFFF7A1
FFFFF9D2
FFFFFD3B
FFFFFEE9
0000049A
FFFFF61B
00000707
FFFFF8AA
00000143
FFFFFD1E
FFFFF9D6
FFFFFEAB
FFFFFCAF
00000079
0000002E
FFFFF99B
00000457
FFFFF954
FFFFF694
00000828
000003A4
00000A54
FFFFFE6C
000005AB
00000569
000006E4
000007C4
00000BA1
000006DF
FFFFFB83
0000035F
FFFFFB60
00000699
0000089D
000004E1
000009FA
0000072C
00000359
00000260
FFFFF8B7
FFFFFCC8
00000031
FFFFFF44
00000002
00000731
0000045E
000005E2
FFFFF593
000006BD
FFFFF7F3
FFFFF8F2
000003C5
FFFFF784
FFFFFE79
000004FE
00000512
FFFFF92A
FFFFFE6C
FFFFFE7A
FFFFF824
00000735
000009B4
000008FB
000001A0
FFFFF319
00000A30
000007F4
FFFFFFB0
FFFFFCC1
FFFFF752
000000B3
FFFFF6CD
000003D4
000004C5
00000E8B
FFFFFF86
00000C68
FFFFFAB6
FFFFFD06
00000CA6
FFFFF761
FFFFFC4B
000009A5
00000B37
000000EF
FFFFFAC5
000008DF
FFFFF54C
00000847
00000234
FFFFF6F3
FFFFF90B
000006D2
000005DC
FFFFFEA0
000004D5
00000246
00000A12
FFFFF9CF
0000016D
000004AA
00000008
0000031A
FFFFF84D
FFFFF937
00000158
00000831
FFFFFF45
00000263
FFFFFDF3
00000505
FFFFF6C1
FFFFFD0F
FFFFFE19
FFFFFA40
000005B0
FFFFFF7B
00000245
0000005B
FFFFFA45
FFFFF9E3
000000B9
FFFFFADF
000003DF
000000AB
0000069A
FFFFFC19
00000664
000002B6
00000A0C
000000A4
000009BA
0000018C
0000064E
000006D5
FFFFF7AB
00000574
00000AEC
FFFFFFDF
000004C9
000002F7
FFFFF768
