fff9
ffe4
0010
0010
ffe8
fff1
ffd5
0016
fff6
001d
0018
ffec
ffe2
0000
ffc0
ffe5
ffbe
ffda
0000
fff1
0006
ffe7
002a
0003
0018
ffda
ffee
ffca
ffe4
ffb5
fff4
ffcb
0005
ffe4
0014
0027
0004
ffe1
ffca
ffe6
0003
0012
002d
0006
fffa
0030
0029
0035
fffb
ffee
ffe7
000f
fff7
ffe5
fffa
fffd
0004
ffeb
0007
0002
ffe4
ffe5
ffda
001d
ffd9
ffde
001f
fff1
ffd1
0005
0018
0016
001e
ffd7
ffef
ffdd
003e
0014
0002
0035
002a
fffb
002d
fffe
0030
0039
001d
001d
0000
002e
ffec
fff2
ffd4
002f
0019
0032
0025
0004
0039
0025
ffe8
0037
0025
0024
001e
ffe5
ffe6
ffcf
ffed
001d
fffd
fff6
0021
0027
ffda
0033
000a
0009
fff4
0032
0003
000a
0016
fff8
000f
000f
ffd1
ffce
002e
ffe1
ffca
0029
ffcf
0000
001a
0019
0023
ffea
000a
0002
0023
001a
ffdf
0009
000d
0009
0018
ffc8
ffff
fffb
001d
fffb
ffd6
0020
fff2
fff0
ffe4
000f
ffbc
000e
000e
ffc0
0017
ffe6
ffe6
0005
ffdd
ffe3
0012
ffeb
fff9
ffef
0010
ffec
0022
ffde
ffcb
fffa
fff9
fff6
ffe3
0030
fff2
0031
0038
0001
ffe1
ffe1
fff5
0011
ffdb
fff6
ffed
ffe2
0015
ffdb
0010
002a
ffe3
0002
002f
ffc7
fffe
001c
fff4
0003
0029
001f
0004
ffec
0037
003e
0006
0021
003e
ffec
ffca
ffc0
ffde
ffd8
fffa
fffc
ffdc
ffc6
ffee
001d
000d
fff2
0022
0015
0030
0006
0007
ffed
001b
ffe3
0007
fff8
0010
0003
fffa
ffd5
0003
002b
ffdc
001e
001d
ffcf
ffc6
ffd8
fff4
ffd4
000a
0016
fff0
ffea
0013
ffeb
000c
0003
0008
ffec
ffdb
ffde
ffee
fffc
fff1
0021
0013
fff4
fff5
001d
fff3
001c
fffb
0002
ffef
ffed
ffe8
ffdc
fff0
fffc
ffec
0006
0014
fff9
0007
0003
0014
ffdd
0006
fffa
ffdb
ffe7
ffeb
0008
ffe4
fff4
000d
0022
ffec
ffe1
0013
fff2
ffef
0017
0010
001c
000c
000c
ffff
0013
0018
0009
001d
ffe3
0003
0007
000d
fff9
001b
fffe
0015
001f
ffe8
ffe2
fff9
ffe3
000e
000b
000e
fff7
ffed
fffa
ffe8
ffe2
000c
0003
ffe5
0004
fffe
0004
ffe8
0008
ffdc
ffeb
ffe0
ffee
fff5
fffa
ffe0
fffa
0018
0010
001b
0028
0007
ffe8
fff3
ffd4
0002
0019
0004
fffe
fffc
0011
0021
001e
000a
0010
fff2
000b
0025
000c
ffef
0010
fff0
0007
ffe8
ffe2
0018
ffd8
000d
001a
fff2
fff3
0019
0006
000c
fff5
0008
ffe6
0005
ffe9
000f
ffed
000c
0017
002b
fffd
001a
0036
ffea
fffc
0019
fff9
fff9
ffe8
ffea
0016
fffc
0005
fff5
001b
fff5
ffe4
ffff
0018
0002
ffeb
ffed
000e
ffee
ffdd
000d
ffe0
0004
ffdc
fff7
fffb
0022
0016
000e
ffe3
ffee
ffe8
ffee
ffe5
fff7
fff6
0015
fff2
fff5
fffb
000d
000f
fffc
0015
fffc
0023
fff8
000c
000c
0005
0000
000b
ffe5
fff0
000c
0011
ffed
fffb
000e
0003
0001
001d
000e
ffdd
fffd
ffe7
0003
fffb
ffeb
000e
000c
001b
0011
ffd6
ffcf
fff9
ffdc
ffd3
0002
ffcb
ffc7
0006
fff5
0003
ffe9
0009
000a
fff1
0002
fff9
ffed
0014
000f
0014
fff4
fffe
fff9
fff2
ffd3
ffe0
001b
ffed
fff9
0010
fff6
0002
0000
0023
0016
0016
ffe4
fff1
0004
0027
0036
ffe9
000d
001f
fff3
ffdc
ffe4
fffd
ffeb
0003
fffc
fff5
fff5
ffda
fff2
0012
fff1
ffdb
0006
0008
0020
ffe4
0006
000b
0014
ffed
ffdf
0007
fffe
ffeb
fff4
001e
0008
fff8
0007
0012
0009
fffb
fff1
001f
fff6
002b
001b
000f
0018
0024
ffec
001d
0001
0013
001c
0000
0013
fff2
0007
fff5
fff8
fff9
0014
ffff
ffe5
000e
000b
000b
fff3
0014
0004
0005
0019
0028
ffec
0020
0028
0015
fff0
001d
ffe2
ffda
0008
ffed
fff9
fff7
fff2
fff2
0004
fff5
0016
0018
000e
001a
fffd
ffee
fff7
fffc
ffe4
0016
fff8
0001
fff3
0012
fffa
fff5
000c
0012
0005
ffe4
ffff
fffa
001d
0008
fff9
fff2
0006
ffe7
fff1
0011
ffea
001f
ffe7
0006
ffef
0009
0003
0007
0027
ffe5
ffe9
000f
0012
fff6
ffe0
ffe1
fff2
fff2
fff2
001f
ffdb
0011
ffe8
fff9
ffd6
ffe5
ffe6
fffc
ffe2
000c
ffe5
0021
0004
0005
ffef
0011
fff0
000c
0002
ffea
fffb
ffea
ffdf
0009
fff6
fff3
ffe8
0000
ffd8
fffe
ffee
001f
fff9
ffe8
000c
ffee
ffe2
000c
fffd
ffe5
001e
0002
000d
004b
0004
0019
002e
0014
ffe4
ffe7
ffe4
fff3
ffeb
fff2
001f
ffe4
ffee
fff3
0009
ffe8
ffe3
0002
0016
fff4
ffe2
ffef
000a
0012
0002
0007
ffe8
ffee
0003
0013
0000
001d
0010
0016
000f
0014
fff3
ffef
0011
000e
0008
fffd
ffe9
ffeb
ffd4
fff2
000a
0008
0005
fff6
fff1
0015
ffe8
fff4
fffa
0003
ffed
000b
0008
fff7
ffe7
ffef
ffc9
ffcb
ffee
ffe5
000d
0012
fffb
0020
fff3
0009
001d
ffe2
0010
fff0
ffef
000e
fffc
fffe
0029
0006
fff7
000e
0005
000d
0004
0003
ffec
0022
0005
0014
0017
0015
fff1
ffee
ffe3
fffc
0006
ffe4
ffe0
fff2
0014
0004
ffe6
ffdb
ffe9
ffe3
fff8
fff8
ffea
ffda
0007
fff5
ffe3
ffe6
0012
000b
fff3
ffdd
0009
000d
0019
fffa
0013
000b
0017
0003
0014
000f
ffe8
fffa
fff0
fffc
ffef
0005
001a
0015
001e
fffc
0027
0012
001e
0013
fff2
fff8
fffa
0001
fff9
fffa
ffe4
ffe4
ffec
ffeb
000c
000e
ffe0
000a
fffc
ffff
ffef
ffef
0010
fffe
ffd6
fffa
ffe9
ffee
0018
ffe8
ffde
fff9
0017
ffe0
0019
fff8
0008
0007
fffa
0020
0007
0013
000c
0003
ffe4
001c
0026
0001
001c
0022
0003
fff4
ffff
001e
001c
0000
001f
ffef
0011
0007
000d
fff5
001e
fff4
ffea
0000
ffdd
fffe
0012
0017
000e
ffeb
fff4
0005
fffa
0008
0025
000d
ffe6
0014
0033
0030
0034
ffd9
ffe0
0018
0005
ffff
0033
000c
fffa
0004
001f
001f
fffd
ffe5
ffe4
ffea
0021
0010
ffdf
0010
0011
fff3
0029
0019
ffef
ffeb
fffc
000b
ffdb
fff4
ffe7
ffe9
ffff
fff4
ffee
fffc
000d
fff9
ffef
0017
fffb
ffec
fff3
fff4
0004
fff0
001d
000a
0009
000d
0029
fff2
fff6
0001
fff4
fffd
001f
ffff
0012
0000
0026
ffed
ffee
0013
fffb
ffe0
0012
000c
0009
ffef
ffec
ffe1
0003
0002
fffb
ffeb
fffb
0016
fffb
fffd
ffd1
ffe4
fff6
fff1
ffcf
ffe6
ffd2
ffec
0021
fff5
000b
ffee
0014
0020
fff6
000c
fff2
fff7
ffe7
ffe5
0004
ffec
000f
0017
001d
0010
fff2
0010
ffdc
0023
0021
0012
ffe0
0001
ffef
fff0
0013
0002
ffd6
fff5
0002
ffd7
ffd6
fff2
0012
fff7
001f
ffe4
000c
fff7
ffeb
ffee
ffe8
000e
fff0
fffd
000f
fff2
ffeb
0015
0001
0003
ffe6
0001
fff7
ffe2
ffea
ffe9
0008
ffd2
ffee
0023
002b
0018
fffb
0025
ffee
0014
0023
0018
0003
fffd
fff8
0035
0038
0002
000d
0001
0026
0025
001d
ffeb
0008
fff4
0011
0022
0015
ffee
0000
ffea
0015
ffe8
000c
fff3
fff7
001b
001c
ffed
0003
0007
0015
000a
fff7
000f
0002
0016
ffe3
0007
fff4
ffff
fff0
fff7
ffda
fff7
ffe3
0007
ffeb
ffff
ffe3
fff2
0008
ffeb
000f
000c
fff8
fffd
001a
fffb
0009
fffd
0010
001b
0011
ffea
ffec
0007
fffe
001d
0002
fff8
0026
0028
0015
fff3
0005
0015
0008
0018
ffeb
001a
0008
fffb
0019
0012
fff0
0019
fffc
0005
0008
0007
0015
0011
ffe7
fff9
0002
0002
000d
0001
fff0
fff6
0013
fffa
fff0
001d
0015
fff4
0016
ffe9
fffa
0020
fffc
0009
000f
0018
0018
ffee
ffe4
fff5
ffee
ffee
ffec
ffe4
ffdc
0016
0017
0008
ffe4
fff6
0003
0013
0019
fffd
ffee
ffea
fffb
001a
ffea
0004
ffee
fffc
fff5
ffea
ffeb
0005
fff2
000e
0013
ffee
0012
fffa
0006
0023
0039
000f
0020
ffe5
0029
0021
0015
0016
0023
0005
000d
0012
0015
ffe0
0010
0017
ffe7
ffff
fffb
fff5
000a
0028
ffee
0013
fff7
fff2
000b
0002
0009
ffe9
fff4
fffc
0023
ffe3
ffea
000a
0015
000b
fff6
fff5
fff7
ffd9
0001
fff5
ffe8
ffe3
0001
0003
0018
ffec
ffed
fff9
000d
fffd
fff2
ffdd
0005
0018
fff8
0000
000e
fff3
0013
0019
fff8
001a
fff9
0007
002a
ffeb
fff5
0010
000a
ffde
ffbd
ffc6
000b
fffe
ffd9
0004
fff8
0007
ffff
000d
0014
0010
0003
000b
fff7
0008
fffc
000f
000d
fff4
001e
0014
0018
002b
ffff
0022
0011
0005
000e
fff9
fff0
ffe6
000b
0021
000a
0017
000e
0000
fff0
000f
0022
ffed
0019
001c
0011
ffd6
ffe0
fff2
fffe
ffff
fffc
fff7
ffe3
ffed
ffea
ffff
0011
0000
ffe5
001d
ffe6
fff7
ffff
ffeb
ffe5
ffff
ffd7
ffe3
000c
ffe5
ffeb
001d
0001
0022
001b
001c
0017
fffe
fff4
0007
ffee
ffe3
fff1
ffe0
ffdf
0009
0007
0006
001e
fff8
0003
000d
001f
fffa
0013
000f
0018
0003
fff2
fffd
001b
0010
0026
002a
fffe
0022
0002
ffdb
ffe8
0019
fffb
fff8
ffea
fffd
0002
fff9
0021
0013
000b
0019
fffa
0017
ffed
fff5
ffe9
000c
fff1
fff7
0007
fffa
fffc
0017
0008
ffe5
0008
0007
ffe9
0022
0008
fff2
0016
0006
ffe7
0014
fff6
fff2
000a
0009
ffeb
ffed
fffd
0018
ffe9
ffec
fff6
fffd
0014
0003
000a
0007
0017
0000
001c
0002
0007
002e
fffa
0018
fffb
ffff
0009
0003
fffb
fff8
ffe7
fff0
ffdc
fff6
0007
fffb
ffef
0018
ffe8
fffa
fffb
0016
fff3
000b
0013
0011
0019
0000
0000
fffd
0007
0016
ffea
fff8
0000
fff1
ffe4
fff1
fff2
fff2
ffe7
0011
0014
000e
000c
0008
0003
fffc
fff1
0015
000d
0011
0022
000e
0018
000d
0009
ffe2
0004
ffe3
0024
0025
0002
fff1
0029
fff5
0012
0003
fff3
0006
ffea
fff7
ffd9
0008
fff0
ffe7
fffd
fff6
0007
0003
000f
0008
fff1
ffe4
fffd
ffdc
ffe5
000a
ffee
0010
000a
fffc
001b
fff7
0009
000a
0026
0025
ffff
0004
0006
fffc
fff8
0026
0016
fff5
fff7
001d
fffc
0005
000f
000d
fff8
fff7
0007
ffe4
000d
001a
ffe2
ffe1
0006
fff4
ffde
fffe
fff0
ffed
ffe6
fffa
ffea
001a
000c
fff9
0002
fff9
ffe5
ffe1
ffd9
ffe6
ffdd
0001
000b
0017
0015
0019
fff8
fffd
fffc
0001
fff7
fff1
fffb
ffe5
ffe7
0004
ffe2
fff5
000d
0003
000a
ffd8
ffc1
ffd2
0003
fffe
fff9
0010
0003
000c
ffe0
ffee
0013
000f
0001
fff8
ffdf
0003
ffec
fff0
fff0
ffde
0000
fffe
ffe0
fffc
ffea
ffde
ffea
fff1
000d
0010
fff0
0004
0003
0016
0003
0009
ffe4
ffff
0004
0002
fff9
fff4
fff2
fff9
0010
001e
fff0
fffe
0002
ffe5
fff3
0018
fff7
fffb
001b
000a
0026
001d
0000
000f
fff9
0007
0002
0004
0007
fffc
fffa
0020
ffe8
0006
000c
0005
ffea
fffb
0002
fff5
ffe7
0003
0000
0017
0017
000f
fffb
0009
0027
fff3
0014
001a
fff6
0000
fffb
fff3
fff3
fff6
fff5
0016
ffe4
0018
ffe7
ffed
0006
ffd4
ffc3
fff8
ffda
ffd5
ffdb
0015
fff8
000d
000b
0019
0028
000e
0027
0018
0022
000a
0017
0013
0029
fffe
ffdb
ffe6
ffed
ffe3
ffd2
fff4
0009
0015
ffea
001b
000d
0013
000e
fff2
0017
ffed
0027
0005
0006
000b
ffed
fffb
fffe
0008
001f
0014
0016
0010
0014
fff9
fff6
0005
000e
000b
fffd
ffe7
001b
fff2
0004
ffec
ffe0
ffe1
000b
fff9
ffea
0020
ffff
fff4
0018
ffea
ffe0
fffc
000a
ffde
ffff
0006
fffb
0019
0010
fffa
001c
fff8
0011
fff8
0009
0013
0016
ffe8
0000
ffe7
ffdc
ffdf
ffe4
0009
ffe6
fff6
0015
0010
0008
ffe4
fff7
fff7
ffe3
ffe2
fff3
fff9
0010
ffe5
fffa
001e
ffd8
0006
001d
0010
fff9
0005
0003
ffe3
0009
000d
0014
0005
ffeb
ffe6
0008
000d
fffa
ffe5
ffe6
fffe
fff2
0000
0015
0004
000c
ffe5
ffe4
0012
0018
0000
0005
fff0
fffe
ffde
fff4
fff1
ffed
fffd
fffd
000d
ffef
ffed
001b
fff1
0015
0014
000e
0003
ffe8
000d
fff6
fff9
0006
0016
000d
ffed
fffd
fff7
ffe3
ffef
000e
fff8
ffec
000e
0003
ffe5
ffff
0007
0006
0005
0011
0011
0009
ffe8
fff1
fffc
ffdf
fff5
ffc4
ffd0
0005
ffd0
ffcc
0019
fff9
ffd9
fff2
0013
0001
fff3
fff1
fffa
fffa
fff7
ffe5
001e
fffb
fff6
fff4
0009
0011
001a
0012
000c
0013
ffe9
0025
000a
ffe7
001d
ffff
000d
fff9
fffb
ffff
fff8
ffe4
ffec
ffe5
fffa
0001
0014
ffe8
0007
000b
0009
0015
000b
0015
fffd
fffc
0019
000c
fff2
000f
fffb
0009
fff2
ffe7
ffe5
ffe2
ffef
0027
0004
001f
fffc
000d
fff2
ffff
ffe2
000b
0007
fff4
0005
0010
0005
0006
001c
ffed
001e
003d
0026
002d
0013
fff4
fff2
ffec
0014
0025
001e
0020
fffe
0017
0006
0007
fffb
fffa
0009
ffeb
ffe0
ffef
fff2
fff0
fff8
fff8
0015
0010
000a
0004
fff5
ffe5
001b
fff4
fffe
fff3
000d
000c
0001
0017
fff5
0009
0000
ffee
ffea
0009
fff0
fffa
0019
fff4
0013
000b
0005
fff1
0005
0022
000c
ffe6
ffef
0002
ffff
000d
0006
ffee
0021
0022
ffe0
000f
fffa
0003
000a
0013
ffe6
0014
001e
fffc
0017
0019
ffea
ffef
ffe6
fffb
0023
0010
fff7
0015
0017
0013
001c
0013
fffe
fff7
000a
000c
fff8
0018
0015
0013
ffe9
fff2
ffdc
fff9
ffeb
ffdc
ffe3
0018
ffec
0016
0017
0014
0001
fff4
ffec
ffe4
ffed
000e
fff4
0012
fff8
fff5
ffec
001f
0000
0014
ffed
0007
ffef
ffe6
fff8
fff9
ffea
ffe8
fff0
0016
000a
0015
ffed
fff1
0017
0008
0018
000a
fff3
fff9
0020
0012
fffd
0021
0010
0013
001e
fffd
0010
fff5
fffa
fffd
fff0
0010
ffe0
ffff
001d
0008
001b
001e
0006
fff6
0009
0013
0010
ffeb
0009
001e
0007
0001
0015
0011
fff2
fff8
0014
0015
0002
fff6
fffa
0009
0002
ffff
fff8
ffec
0015
ffe5
ffe7
ffe8
fff1
ffed
ffee
fffa
fffd
0004
ffe9
fff7
ffde
fff9
0009
fffc
000f
fff8
001b
fffe
0017
0025
ffed
000e
0015
0012
0044
0037
0003
0012
0019
ffec
0005
0028
0005
fffb
ffee
fff1
ffd5
ffdc
ffff
fff8
0011
ffeb
fffb
0017
ffe4
fffd
fff3
001c
fffa
fff3
0013
fffd
0028
ffdf
fff3
fff2
fff2
ffc7
ffe2
fff1
fff4
fffe
fff8
ffcf
ffe6
001f
fff1
ffe1
fff0
ffdc
0000
ffe8
ffcc
0000
ffe0
ffda
0009
000e
0006
001b
000f
002f
0012
000c
001f
ffff
fffb
000a
fff4
0021
0013
000e
fff6
0010
0018
fff3
fff1
fff4
0013
0008
0017
fff3
fff6
fff3
000e
ffe0
0015
ffdb
ffc8
000c
000a
ffe9
0010
0018
ffef
ffe5
fff3
0013
ffeb
001b
001e
000c
001e
0009
000c
0020
0010
ffe5
ffee
ffe9
ffe2
0007
fffa
0008
ffd9
0017
fff8
fff0
ffed
001c
ffed
0012
000a
fff7
ffe6
ffff
fffd
0003
0007
001f
fff9
0005
001f
0016
fffa
0010
0000
0018
ffe7
0001
ffff
0007
fff9
fffc
0019
fff7
ffef
fff9
0006
0008
001e
0019
fff7
fff0
fff6
000f
fff7
fffc
001b
ffff
fff7
fffc
000a
ffff
0008
fff2
fffd
fffb
000e
000b
0012
0000
fff3
0012
0010
0002
ffec
ffe4
fff6
fff6
001b
fff8
0010
ffea
ffed
0023
0003
0002
0014
fffc
000a
ffe2
0000
ffed
000e
ffd7
ffe6
ffe9
ffea
fff5
0001
ffe9
0000
fff1
ffd6
ffe8
fff4
fffc
ffe5
ffed
ffea
0004
001c
000a
0014
000f
ffe7
000d
ffed
001f
fffb
0005
0017
0023
000c
ffff
fff1
fff3
fff9
0001
0006
0015
0004
fffa
fff1
0002
0017
0013
0017
0003
000b
0015
ffef
ffe2
0015
ffed
ffe3
0022
0011
ffed
0014
fff1
0019
fff3
0005
0003
ffd9
ffe7
fffb
fff4
ffd4
fffe
fff7
0013
ffef
001e
0005
000a
001a
0014
001a
0005
001f
0006
fffa
fffb
0001
fff9
001a
000e
0014
fff4
0002
ffef
000a
ffef
ffea
0010
0008
0013
0008
000b
0014
001e
000c
fffc
fff9
000f
0013
ffef
fff2
fff1
000e
fff3
0015
0003
fff3
000f
ffea
0003
fffb
fffd
0016
0021
fff2
fff9
001a
fff5
fff9
fffc
ffe4
ffea
ffd2
fffd
ffdd
ffe1
ffff
001d
ffec
fffc
0018
ffe5
000f
ffea
000f
fff1
0016
0002
fff2
ffe9
ffec
0006
0001
fffa
0012
ffe8
0007
fffa
ffee
fff4
fff7
fff7
000a
ffe7
ffe4
0018
ffe8
0011
000e
0010
0007
0011
fff1
fff1
0004
0004
000d
ffd6
fffa
ffef
0004
0008
000d
fff5
0003
000b
fff4
000e
0025
0015
fff5
fffe
fff8
0013
ffef
fff9
ffe7
0008
ffea
000a
000b
000a
fff2
0014
0017
0021
ffe4
0015
ffe6
ffed
fff8
000d
ffe7
0013
ffe7
000a
ffed
0005
ffe6
fff9
0006
fff8
000f
0018
0003
001f
0004
0007
0009
ffe8
0004
001a
ffec
000c
fff5
001a
000e
0003
0001
0014
001b
0012
fffc
fff8
fffa
000a
0012
0010
000b
0027
001b
ffef
0015
ffea
0006
fff3
000b
0000
fff1
ffe0
ffe3
ffd2
ffdd
0001
ffe1
ffd9
ffe7
ffe1
ffd9
fff9
0005
ffef
0018
000d
fffb
0015
ffe8
0019
fff1
000f
fffa
0007
fff7
ffef
000c
000c
001c
ffef
0004
fff1
fffc
001d
0011
0004
0016
ffe8
fff8
0011
0005
0018
0017
0002
0006
0008
0002
fff5
0011
ffec
fffa
0011
ffff
