e5
fa
08
07
0c
0e
e8
e5
f5
fa
f6
f6
f6
27
07
09
0f
23
f8
03
07
fc
07
ec
ee
f5
02
02
0c
10
ef
e7
14
ee
00
f7
06
f9
1c
07
06
05
18
14
fc
0a
03
f5
f2
0a
f2
fc
15
03
01
e8
f8
fb
f2
f8
01
10
0a
05
12
ff
02
1e
25
f4
0b
00
f3
fb
04
fa
15
03
ff
e5
e4
02
fe
e8
05
09
ef
07
16
05
ff
1a
11
19
0b
20
fc
0e
19
03
f2
f6
0e
1e
f2
ec
11
e9
0b
01
f9
f3
08
fd
f1
05
fb
11
0e
0f
12
09
03
10
00
f4
0a
10
f8
06
17
f9
02
01
0f
ef
fe
ee
0f
f5
ea
fd
17
11
00
07
eb
f2
09
13
00
fa
e6
fd
1c
0d
0b
32
18
f1
05
08
0c
f8
10
e7
09
02
f9
fb
07
f4
12
10
ff
f6
16
0e
07
ee
e8
13
f3
15
1c
fc
f7
00
ef
19
06
fe
e4
dc
ff
f4
0a
fd
08
f9
fc
eb
1f
03
0a
ef
e8
08
06
05
13
19
fb
fc
1c
00
ed
f5
1c
0b
01
11
07
ea
11
10
e9
f1
ed
01
fe
18
ef
fb
ec
f0
f6
f8
04
f9
12
fa
0a
f4
f1
fa
f4
d6
03
f9
05
ed
13
e9
02
0c
da
04
eb
06
1c
10
04
01
ed
04
01
0f
0c
06
13
f8
fc
e2
f8
e6
00
0b
10
0d
10
0e
0a
d9
13
0c
fb
f3
10
14
ee
03
06
06
ed
ef
ed
0e
06
fb
f0
db
e9
1a
fc
f2
09
f3
1a
06
e3
eb
0d
f8
0c
0c
fc
0c
02
e4
04
01
f0
f1
08
ec
f3
04
05
f5
11
15
01
10
f5
1d
fc
f2
08
08
f4
f8
ea
0b
fb
0f
0c
f6
f1
00
e0
f3
df
ed
00
f9
03
f3
15
01
0c
ed
f7
e5
f2
db
fa
e6
02
f2
0a
14
02
f1
e5
f3
01
09
17
03
fd
18
15
1b
fd
f7
f3
08
fc
f2
fd
fe
02
f5
04
01
f2
f2
ed
0f
ec
ef
0f
f8
e8
02
0c
0b
0f
eb
f8
ef
1f
0a
01
1b
15
fd
17
ff
18
1d
0f
0e
00
17
f6
f9
ea
17
0d
19
12
02
1c
12
f4
1b
12
12
0f
f3
f3
e8
f7
0f
fe
fb
10
14
ed
1a
05
05
fa
19
01
05
0b
fc
07
08
e8
e7
17
f1
e5
15
e7
00
0d
0c
11
f5
05
01
11
0d
ef
04
07
05
0c
e4
00
fe
0e
fd
eb
10
f9
f8
f2
08
de
07
07
e0
0b
f3
f3
03
ee
f1
09
f6
fc
f8
08
f6
11
ef
e5
fd
fc
fb
f2
18
f9
18
1c
00
f1
f0
fa
08
ee
fb
f7
f1
0a
ee
08
15
f2
01
17
e3
ff
0e
fa
02
14
10
02
f6
1c
1f
03
10
1f
f6
e5
e0
ef
ec
fd
fe
ee
e3
f7
0f
07
f9
11
0a
18
03
04
f6
0d
f2
04
fc
08
01
fd
ea
01
16
ee
0f
0e
e7
e3
ec
fa
ea
05
0b
f8
f5
09
f5
06
02
04
f6
ee
ef
f7
fe
f9
10
0a
fa
fb
0e
fa
0e
fd
01
f7
f7
f4
ee
f8
fe
f6
03
0a
fd
04
02
0a
ef
03
fd
ed
f4
f6
04
f2
fa
06
11
f6
f0
09
f9
f7
0c
08
0e
06
06
ff
09
0c
04
0f
f1
01
03
06
fc
0d
ff
0b
0f
f4
f1
fc
f2
07
06
07
fc
f7
fd
f4
f1
06
01
f2
02
ff
02
f4
04
ee
f5
f0
f7
fa
fd
f0
fd
0c
08
0d
14
03
f4
fa
ea
01
0c
02
ff
fe
09
11
0f
05
08
f9
05
12
06
f7
08
f8
04
f4
f1
0c
ec
07
0d
f9
f9
0c
03
06
fa
04
f3
02
f5
08
f7
06
0b
15
ff
0d
1b
f5
fe
0d
fd
fd
f4
f5
0b
fe
02
fa
0d
fb
f2
00
0c
01
f6
f7
07
f7
ee
07
f0
02
ee
fb
fe
11
0b
07
f2
f7
f4
f7
f2
fc
fb
0a
f9
fa
fe
06
08
fe
0a
fe
12
fc
06
06
03
00
06
f2
f8
06
08
f7
fe
07
02
00
0e
07
ef
ff
f3
01
fd
f5
07
06
0e
09
eb
e8
fd
ee
e9
01
e5
e3
03
fa
01
f5
05
05
f8
01
fd
f7
0a
07
0a
fa
ff
fd
f9
ea
f0
0d
f7
fc
08
fb
01
00
12
0b
0b
f2
f9
02
13
1b
f4
06
0f
fa
ee
f2
ff
f5
02
fe
fb
fb
ed
f9
09
f8
ee
03
04
10
f2
03
06
0a
f7
f0
04
ff
f6
fa
0f
04
fc
04
09
04
fe
f8
10
fb
16
0e
07
0c
12
f6
0f
00
0a
0e
00
0a
f9
04
fa
fc
fd
0a
ff
f3
07
06
06
f9
0a
02
03
0d
14
f6
10
14
0a
f8
0e
f1
ed
04
f7
fd
fb
f9
f9
02
fa
0b
0c
07
0d
ff
f7
fc
fe
f2
0b
fc
01
fa
09
fd
fa
06
09
03
f2
ff
fd
0f
04
fd
f9
03
f4
f9
08
f5
10
f4
03
f8
04
02
03
13
f3
f4
08
09
fb
f0
f1
f9
f9
f9
10
ee
08
f4
fd
eb
f2
f3
fe
f1
06
f3
10
02
02
f7
09
f8
06
01
f5
fe
f5
f0
05
fb
f9
f4
00
ec
ff
f7
0f
fc
f4
06
f7
f1
06
fe
f2
0f
01
06
25
02
0c
17
0a
f2
f3
f2
f9
f5
f9
10
f2
f7
fa
04
f4
f2
01
0b
fa
f1
f7
05
09
01
04
f4
f7
01
0a
00
0f
08
0b
08
0a
fa
f7
08
07
04
ff
f4
f5
ea
f9
05
04
03
fb
f9
0b
f4
fa
fd
01
f7
05
04
fc
f3
f7
e5
e6
f7
f2
06
09
fe
10
f9
04
0f
f1
08
f8
f7
07
fe
ff
15
03
fb
07
03
07
02
02
f6
11
03
0a
0b
0b
f9
f7
f2
fe
03
f2
f0
f9
0a
02
f3
ee
f4
f1
fc
fc
f5
ed
03
fa
f1
f3
09
06
fa
ef
04
06
0d
fd
09
06
0c
01
0a
07
f4
fd
f8
fe
f8
02
0d
0a
0f
fe
14
09
0f
0a
f9
fc
fd
00
fc
fd
f2
f2
f6
f6
06
07
f0
05
fe
ff
f7
f7
08
ff
eb
fd
f4
f7
0c
f4
ef
fc
0c
f0
0d
fc
04
03
fd
10
04
0a
06
02
f2
0e
13
00
0e
11
01
fa
00
0f
0e
00
0f
f7
08
04
06
fa
0f
fa
f5
00
ef
ff
09
0b
07
f5
fa
03
fd
04
13
06
f3
0a
19
18
1a
ed
f0
0c
02
ff
1a
06
fd
02
10
10
fe
f2
f2
f5
11
08
f0
08
09
f9
14
0c
f8
f6
fe
05
ee
fa
f4
f4
ff
fa
f7
fe
07
fc
f7
0b
fd
f6
fa
fa
02
f8
0e
05
04
06
15
f9
fb
00
fa
fe
10
00
09
00
13
f6
f7
0a
fd
f0
09
06
05
f8
f6
f0
02
01
fe
f6
fd
0b
fe
ff
e9
f2
fb
f9
e8
f3
e9
f6
11
fb
06
f7
0a
10
fb
06
f9
fb
f4
f3
02
f6
07
0c
0f
08
f9
08
ee
11
11
09
f0
00
f8
f8
0a
01
eb
fa
01
ec
eb
f9
09
fb
0f
f2
06
fc
f6
f7
f4
07
f8
fe
07
f9
f5
0b
01
02
f3
01
fb
f1
f5
f4
04
e9
f7
11
15
0c
fe
13
f7
0a
12
0c
02
fe
fc
1b
1c
01
07
01
13
13
0f
f6
04
fa
09
11
0b
f7
00
f5
0a
f4
06
fa
fc
0d
0e
f6
01
04
0b
05
fc
08
01
0b
f1
03
fa
ff
f8
fb
ed
fb
f1
04
f6
00
f2
f9
04
f6
07
06
fc
ff
0d
fe
05
fe
08
0e
08
f5
f6
04
ff
0e
01
fc
13
14
0a
fa
02
0a
04
0c
f6
0d
04
fe
0d
09
f8
0c
fe
03
04
03
0a
08
f3
fd
01
01
07
00
f8
fb
0a
fd
f8
0f
0b
fa
0b
f5
fd
10
fe
05
08
0c
0c
f7
f2
fb
f7
f7
f6
f2
ee
0b
0b
04
f2
fb
01
0a
0c
ff
f7
f5
fd
0d
f5
02
f7
fe
fa
f5
f6
02
f9
07
0a
f7
09
fd
03
12
1c
07
10
f2
15
10
0b
0b
11
02
06
09
0b
f0
08
0c
f4
ff
fe
fb
05
14
f7
0a
fc
f9
05
01
05
f5
fa
fe
11
f2
f5
05
0b
06
fb
fa
fc
ec
01
fa
f4
f2
00
02
0c
f6
f6
fd
06
ff
f9
ef
02
0c
fc
00
07
f9
09
0c
fc
0d
fc
04
15
f6
fb
08
05
ef
de
e3
06
ff
ec
02
fc
03
ff
07
0a
08
01
05
fb
04
fe
08
06
fa
0f
0a
0c
15
ff
11
08
02
07
fc
f8
f3
05
10
05
0c
07
00
f8
08
11
f7
0c
0e
09
eb
f0
f9
ff
00
fe
fb
f1
f7
f5
00
09
00
f3
0e
f3
fc
00
f5
f3
00
ec
f1
06
f3
f5
0e
01
11
0d
0e
0c
ff
fa
03
f7
f2
f9
f0
f0
05
04
03
0f
fc
02
06
0f
fd
0a
07
0c
02
f9
fe
0d
08
13
15
ff
11
01
ee
f4
0c
fe
fc
f5
ff
01
fc
11
09
05
0d
fd
0b
f7
fb
f5
06
f9
fc
04
fd
fe
0b
04
f3
04
03
f4
11
04
f9
0b
03
f4
0a
fb
f9
05
05
f6
f6
fe
0c
f5
f6
fb
ff
0a
02
05
03
0b
00
0e
01
04
17
fd
0c
fe
ff
04
01
fe
fc
f3
f8
ee
fb
04
fe
f8
0c
f4
fd
fd
0b
f9
05
09
09
0d
00
00
ff
04
0b
f5
fc
00
f8
f2
f9
f9
f9
f3
09
0a
07
06
04
02
fe
f8
0a
06
08
11
07
0c
07
04
f1
02
f2
12
12
01
f9
14
fa
09
02
fa
03
f5
fc
ed
04
f8
f3
fe
fb
04
02
07
04
f9
f2
fe
ee
f3
05
f7
08
05
fe
0e
fb
05
05
13
13
00
02
03
fe
fc
13
0b
fb
fc
0f
fe
02
07
06
fc
fb
03
f2
06
0d
f1
f0
03
fa
ef
ff
f8
f6
f3
fd
f5
0d
06
fc
01
fd
f2
f1
ec
f3
ee
01
05
0c
0a
0d
fc
fe
fe
01
fc
f8
fd
f2
f3
02
f1
fb
07
01
05
ec
e1
e9
02
ff
fd
08
02
06
f0
f7
0a
07
00
fc
f0
02
f6
f8
f8
ef
00
ff
f0
fe
f5
ef
f5
f8
06
08
f8
02
02
0b
01
05
f2
00
02
01
fc
fa
f9
fc
08
0f
f8
ff
01
f2
f9
0c
fc
fe
0e
05
13
0f
00
07
fd
04
01
02
04
fe
fd
10
f4
03
06
03
f5
fd
01
fb
f4
02
00
0c
0b
08
fd
04
13
fa
0a
0d
fb
00
fe
fa
fa
fb
fb
0b
f2
0c
f3
f6
03
ea
e1
fc
ed
ea
ee
0a
fc
07
05
0d
14
07
13
0c
11
05
0c
09
14
ff
ee
f3
f7
f1
e9
fa
04
0a
f5
0e
07
0a
07
f9
0c
f6
14
02
03
05
f7
fd
ff
04
0f
0a
0b
08
0a
fc
fb
03
07
05
ff
f3
0d
f9
02
f6
f0
f0
06
fd
f5
10
ff
fa
0c
f5
f0
fe
05
ef
00
03
fe
0d
08
fd
0e
fc
08
fc
05
09
0b
f4
00
f3
ee
ef
f2
05
f3
fb
0b
08
04
f2
fc
fc
f2
f1
fa
fd
08
f3
fd
0f
ec
03
0e
08
fc
02
01
f2
04
06
0a
03
f6
f3
04
06
fd
f3
f3
ff
f9
00
0a
02
06
f2
f2
09
0c
00
03
f8
ff
ef
fa
f9
f6
ff
ff
07
f8
f6
0e
f8
0b
0a
07
01
f4
07
fb
fc
03
0b
06
f6
ff
fc
f2
f7
07
fc
f6
07
02
f3
00
03
03
03
09
08
04
f4
f8
fe
f0
fb
e2
e8
03
e8
e6
0c
fc
ed
f9
09
00
fa
f9
fd
fd
fc
f3
0f
fe
fb
fa
05
09
0d
09
06
0a
f4
12
05
f4
0f
00
06
fc
fd
00
fc
f2
f6
f2
fd
00
0a
f4
04
05
04
0b
06
0a
ff
fe
0d
06
f9
07
fd
05
f9
f4
f3
f1
f8
13
02
10
fe
07
f9
00
f1
06
03
fa
03
08
02
03
0e
f7
0f
1f
13
17
0a
fa
f9
f6
0a
13
0f
10
ff
0c
03
03
fd
fd
05
f5
f0
f7
f9
f8
fc
fc
0a
08
05
02
fb
f3
0d
fa
ff
f9
06
06
01
0b
fa
05
00
f7
f5
04
f8
fd
0d
fa
0a
05
03
f9
03
11
06
f3
f8
01
ff
06
03
f7
11
11
f0
08
fd
01
05
0a
f3
0a
0f
fe
0b
0d
f5
f8
f3
fe
12
08
fc
0b
0c
0a
0e
09
ff
fc
05
06
fc
0c
0b
09
f5
f9
ee
fc
f5
ee
f1
0c
f6
0b
0c
0a
00
fa
f6
f2
f6
07
fa
09
fc
fa
f6
10
00
0a
f6
04
f7
f3
fc
fc
f5
f4
f8
0b
05
0b
f7
f9
0b
04
0c
05
fa
fc
10
09
fe
10
08
09
0f
ff
08
fb
fd
ff
f8
08
f0
ff
0e
04
0e
0f
03
fb
04
0a
08
f5
05
0f
04
00
0b
08
f9
fc
0a
0b
01
fb
fd
04
01
ff
fc
f6
0a
f3
f3
f4
f9
f7
f7
fd
fe
02
f4
fb
ef
fc
04
fe
08
fc
0d
ff
0c
13
f6
07
0b
09
22
1c
02
09
0c
f6
03
14
03
fd
f7
f8
ea
ee
00
fc
09
f6
fd
0b
f2
ff
f9
0e
fd
fa
0a
fe
14
ef
fa
f9
f9
e4
f1
f9
fa
ff
fc
e8
f3
10
f8
f1
f8
ee
00
f4
e6
00
f0
ed
04
07
03
0d
08
18
09
06
0f
00
fe
05
fa
10
0a
07
fb
08
0c
fa
f9
fa
0a
04
0c
fa
fb
fa
07
f0
0b
ee
e4
06
05
f5
08
0c
f7
f2
fa
09
f6
0e
0f
06
0f
04
06
10
08
f2
f7
f5
f1
04
fd
04
ed
0b
fc
f8
f7
0e
f7
09
05
fc
f3
ff
ff
01
03
10
fc
02
10
0b
fd
08
00
0c
f3
00
ff
04
fc
fe
0c
fc
f7
fc
03
04
0f
0c
fc
f8
fb
08
fb
fe
0e
00
fb
fe
05
00
04
f9
fe
fd
07
05
09
00
f9
09
08
01
f6
f2
fb
fb
0d
fc
08
f5
f7
11
01
01
0a
fe
05
f1
00
f7
07
eb
f3
f5
f5
fb
01
f5
00
f8
eb
f4
fa
fe
f2
f7
f5
02
0e
05
0a
07
f3
06
f7
10
fe
03
0c
11
06
ff
f9
f9
fd
00
03
0a
02
fd
f9
01
0b
0a
0c
02
06
0b
f7
f1
0b
f6
f1
11
08
f6
0a
f9
0d
fa
02
02
ec
f3
fe
fa
ea
ff
fc
0a
f7
0f
03
05
0d
0a
0d
02
0f
03
fd
fd
01
fd
0d
07
0a
fa
01
f7
05
f7
f5
08
04
0a
04
05
0a
0f
06
fe
fc
07
09
f7
f9
f9
07
f9
0b
02
fa
08
f5
02
fe
ff
0b
11
f9
fd
0d
fa
fc
fe
f2
f5
e9
ff
ef
f1
ff
0e
f6
fe
0c
f2
08
f5
08
f8
0b
01
f9
f5
f6
03
01
fd
09
f4
03
fd
f7
fa
fb
fb
05
f3
f2
0c
f4
09
07
08
03
09
f9
f8
02
02
06
eb
fd
f7
02
04
06
fb
01
06
fa
07
12
0b
fb
ff
fc
0a
f8
fd
f3
04
f5
05
06
05
f9
0a
0b
11
f2
0a
f3
f7
fc
06
f4
0a
f3
05
f7
02
f3
fc
03
fc
07
0c
02
0f
02
04
04
f4
02
0d
f6
06
fa
0d
07
01
00
0a
0e
09
fe
fc
fd
05
09
08
05
14
0d
f7
0b
f5
03
f9
06
00
f8
f0
f1
e9
ee
01
f0
ec
f3
f0
ed
fc
03
f8
0c
06
fd
0b
f4
0c
f9
08
fd
04
fb
f8
06
06
0e
f8
02
f9
fe
0e
08
02
0b
f4
fc
09
03
0c
0c
01
03
04
01
fb
09
f6
fd
08
ff
